node {
  name: "NCHW_output/perm"
  op: "Const"
  attr {
    key: "dtype"
    value {
      type: DT_INT32
    }
  }
  attr {
    key: "value"
    value {
      tensor {
        dtype: DT_INT32
        tensor_shape {
          dim {
            size: 4
          }
        }
        tensor_content: "\000\000\000\000\003\000\000\000\001\000\000\000\002\000\000\000"
      }
    }
  }
}
node {
  name: "mul_13/y"
  op: "Const"
  attr {
    key: "dtype"
    value {
      type: DT_FLOAT
    }
  }
  attr {
    key: "value"
    value {
      tensor {
        dtype: DT_FLOAT
        tensor_shape {
        }
        float_val: 0.5
      }
    }
  }
}
node {
  name: "alpha7"
  op: "Const"
  attr {
    key: "dtype"
    value {
      type: DT_FLOAT
    }
  }
  attr {
    key: "value"
    value {
      tensor {
        dtype: DT_FLOAT
        tensor_shape {
          dim {
            size: 56
          }
        }
        tensor_content: "\315\314\314=\315\314\314=\315\314\314=\315\314\314=\315\314\314=\315\314\314=\315\314\314=\315\314\314=\315\314\314=\315\314\314=\315\314\314=\315\314\314=\315\314\314=\315\314\314=\315\314\314=\315\314\314=\315\314\314=\315\314\314=\315\314\314=\315\314\314=\315\314\314=\315\314\314=\315\314\314=\315\314\314=\315\314\314=\315\314\314=\315\314\314=\315\314\314=\315\314\314=\315\314\314=\315\314\314=\315\314\314=\315\314\314=\315\314\314=\315\314\314=\315\314\314=\315\314\314=\315\314\314=\315\314\314=\315\314\314=\315\314\314=\315\314\314=\315\314\314=\315\314\314=\315\314\314=\315\314\314=\315\314\314=\315\314\314=\315\314\314=\315\314\314=\315\314\314=\315\314\314=\315\314\314=\315\314\314=\315\314\314=\315\314\314="
      }
    }
  }
}
node {
  name: "mul_11/y"
  op: "Const"
  attr {
    key: "dtype"
    value {
      type: DT_FLOAT
    }
  }
  attr {
    key: "value"
    value {
      tensor {
        dtype: DT_FLOAT
        tensor_shape {
        }
        float_val: 0.5
      }
    }
  }
}
node {
  name: "alpha6"
  op: "Const"
  attr {
    key: "dtype"
    value {
      type: DT_FLOAT
    }
  }
  attr {
    key: "value"
    value {
      tensor {
        dtype: DT_FLOAT
        tensor_shape {
          dim {
            size: 12
          }
        }
        tensor_content: "\315\314\314=\315\314\314=\315\314\314=\315\314\314=\315\314\314=\315\314\314=\315\314\314=\315\314\314=\315\314\314=\315\314\314=\315\314\314=\315\314\314="
      }
    }
  }
}
node {
  name: "mul_9/y"
  op: "Const"
  attr {
    key: "dtype"
    value {
      type: DT_FLOAT
    }
  }
  attr {
    key: "value"
    value {
      tensor {
        dtype: DT_FLOAT
        tensor_shape {
        }
        float_val: 0.5
      }
    }
  }
}
node {
  name: "alpha5"
  op: "Const"
  attr {
    key: "dtype"
    value {
      type: DT_FLOAT
    }
  }
  attr {
    key: "value"
    value {
      tensor {
        dtype: DT_FLOAT
        tensor_shape {
          dim {
            size: 12
          }
        }
        tensor_content: "\315\314\314=\315\314\314=\315\314\314=\315\314\314=\315\314\314=\315\314\314=\315\314\314=\315\314\314=\315\314\314=\315\314\314=\315\314\314=\315\314\314="
      }
    }
  }
}
node {
  name: "mul_7/y"
  op: "Const"
  attr {
    key: "dtype"
    value {
      type: DT_FLOAT
    }
  }
  attr {
    key: "value"
    value {
      tensor {
        dtype: DT_FLOAT
        tensor_shape {
        }
        float_val: 0.5
      }
    }
  }
}
node {
  name: "alpha4"
  op: "Const"
  attr {
    key: "dtype"
    value {
      type: DT_FLOAT
    }
  }
  attr {
    key: "value"
    value {
      tensor {
        dtype: DT_FLOAT
        tensor_shape {
          dim {
            size: 12
          }
        }
        tensor_content: "\315\314\314=\315\314\314=\315\314\314=\315\314\314=\315\314\314=\315\314\314=\315\314\314=\315\314\314=\315\314\314=\315\314\314=\315\314\314=\315\314\314="
      }
    }
  }
}
node {
  name: "mul_5/y"
  op: "Const"
  attr {
    key: "dtype"
    value {
      type: DT_FLOAT
    }
  }
  attr {
    key: "value"
    value {
      tensor {
        dtype: DT_FLOAT
        tensor_shape {
        }
        float_val: 0.5
      }
    }
  }
}
node {
  name: "alpha3"
  op: "Const"
  attr {
    key: "dtype"
    value {
      type: DT_FLOAT
    }
  }
  attr {
    key: "value"
    value {
      tensor {
        dtype: DT_FLOAT
        tensor_shape {
          dim {
            size: 12
          }
        }
        tensor_content: "\315\314\314=\315\314\314=\315\314\314=\315\314\314=\315\314\314=\315\314\314=\315\314\314=\315\314\314=\315\314\314=\315\314\314=\315\314\314=\315\314\314="
      }
    }
  }
}
node {
  name: "mul_3/y"
  op: "Const"
  attr {
    key: "dtype"
    value {
      type: DT_FLOAT
    }
  }
  attr {
    key: "value"
    value {
      tensor {
        dtype: DT_FLOAT
        tensor_shape {
        }
        float_val: 0.5
      }
    }
  }
}
node {
  name: "alpha2"
  op: "Const"
  attr {
    key: "dtype"
    value {
      type: DT_FLOAT
    }
  }
  attr {
    key: "value"
    value {
      tensor {
        dtype: DT_FLOAT
        tensor_shape {
          dim {
            size: 12
          }
        }
        tensor_content: "\315\314\314=\315\314\314=\315\314\314=\315\314\314=\315\314\314=\315\314\314=\315\314\314=\315\314\314=\315\314\314=\315\314\314=\315\314\314=\315\314\314="
      }
    }
  }
}
node {
  name: "mul_1/y"
  op: "Const"
  attr {
    key: "dtype"
    value {
      type: DT_FLOAT
    }
  }
  attr {
    key: "value"
    value {
      tensor {
        dtype: DT_FLOAT
        tensor_shape {
        }
        float_val: 0.5
      }
    }
  }
}
node {
  name: "alpha1"
  op: "Const"
  attr {
    key: "dtype"
    value {
      type: DT_FLOAT
    }
  }
  attr {
    key: "value"
    value {
      tensor {
        dtype: DT_FLOAT
        tensor_shape {
          dim {
            size: 56
          }
        }
        tensor_content: "\315\314\314=\315\314\314=\315\314\314=\315\314\314=\315\314\314=\315\314\314=\315\314\314=\315\314\314=\315\314\314=\315\314\314=\315\314\314=\315\314\314=\315\314\314=\315\314\314=\315\314\314=\315\314\314=\315\314\314=\315\314\314=\315\314\314=\315\314\314=\315\314\314=\315\314\314=\315\314\314=\315\314\314=\315\314\314=\315\314\314=\315\314\314=\315\314\314=\315\314\314=\315\314\314=\315\314\314=\315\314\314=\315\314\314=\315\314\314=\315\314\314=\315\314\314=\315\314\314=\315\314\314=\315\314\314=\315\314\314=\315\314\314=\315\314\314=\315\314\314=\315\314\314=\315\314\314=\315\314\314=\315\314\314=\315\314\314=\315\314\314=\315\314\314=\315\314\314=\315\314\314=\315\314\314=\315\314\314=\315\314\314=\315\314\314="
      }
    }
  }
}
node {
  name: "b6"
  op: "Const"
  attr {
    key: "dtype"
    value {
      type: DT_FLOAT
    }
  }
  attr {
    key: "value"
    value {
      tensor {
        dtype: DT_FLOAT
        tensor_shape {
          dim {
            size: 12
          }
        }
        tensor_content: "\000\000\000\000\000\000\000\000\000\000\000\000\000\000\000\000\000\000\000\000\000\000\000\000\000\000\000\000\000\000\000\000\000\000\000\000\000\000\000\000\000\000\000\000\000\000\000\000"
      }
    }
  }
}
node {
  name: "f6"
  op: "Const"
  attr {
    key: "dtype"
    value {
      type: DT_FLOAT
    }
  }
  attr {
    key: "value"
    value {
      tensor {
        dtype: DT_FLOAT
        tensor_shape {
          dim {
            size: 3
          }
          dim {
            size: 3
          }
          dim {
            size: 12
          }
          dim {
            size: 12
          }
        }
        tensor_content: "W\r(=I!\007>7\211\320\275\252\3058\275s\223\002\276\213\262b\275\037\304F<k\310\301\273\312la=\265+\262=\220\231\024\275\313|\035\275@,\t>\326t\235\275\277\336\200<\323\022\321=1\240\002\27529A\273K\010\2739k\206\252=\362\300\371=\263\364\370\275+\351\346:\263\023\264\274S\273\363=sX\357=\003M\032<p\034Y>,\315\226=YK=\276+\211\313\272\363\003\237=\216\242\024>\215\254\363<\326F3>\0234\006>\250\337S\275{\233\254\274/\330\212\275\0220\037\276}\022\371\275@\353\377=\352?\352<F\355\005\276\365r\231\275\206\362\204\274\203\270\325\275\342\300@<RC+\275 \215\210=\013\325#>~~\031\273\020\262%>\347\265\001>\r\376\247=\302b\367<\226@\273<\256\023\244\275%\302\327;\360 W\2768s)\276\311\351=\274?\306+<\322G\036<\364\235H\276\306\341\034=K=z\275a\302\304</o\243\275\210\211C\275\277\363m;\277\2169\275ec\\\275X\303U\275\032\025\351:\267\010\244=\215g\205;\010R\024\276:<6>\236\243\014\276\014\243K>\2352\222\274z\306+=\351\001\023>_k\005\276\375\004\274\275\347\321\267\275\307\235\031>\367`\330\275s\376g\276X]\262<k<\032=\361^\306\275\375\3166\275W+<\276m\216\310<\270\327\220\275\262\274\003\276\350L\221\274\025\036\344<@w\310\274\223c\224=\330\023\360\27541\204<7@>\275c~\222\275\265\026\277=\035\343\227\275\177\304\325\275\224\227\000>\023\323\303\274\336\361\245\275\310h\231\275\344\263\303=\201]\t\276\3077\035<\317-\353\275\363:>>\257\201\333\275\217\213\212\276S\200\342\272s\007N\275}*t\275\211\271\000\276\031\233(>\221\366\255=\323E\n\276p<\223\274\241\343,>\333\210s<xL[\275%pp\275\240\204\362\275v\371\235=\257\355?=3?\014=\302\304\315<v\017\007=\027\220\212=3K5\276I\204\257\275=\363\250\274\3037\220\276\037@#\274Y:\230=\261&\223\275\242\316/>\302\206\350=i\302$>\220\342L=\213\340\201>\225+\367=\365\353u\276\302\223\241\274\373\370\350\275B\266\007;j\371\371<\352\266\371<\251\300\030>\267\177x=\373-\230=\222\035\252\275\243\373\362=\023\241\222\275 P\327\275\274\325\251\275$\224+<\036\347\201;\010=\362=\234B\265\275\243\306@\275\017\2177\274\257\030\360=\203$\336=\274\222\311=\230\220\365\273g5\013\275\202@\r\276\365g\372\273G~P\275a\361\305\2747\311\210=\207\230\025\274\377\335\377=f\340 \274\305\021W\275\320\350\244\275\310\315@=\267\032L=\303\352\026> \3171>H\2147<#\343\'=\360\261\t>_\203\222\275K\305\352<#\036\252\275\207%1>\206\022\261=S\374\233\2740~U\275_*\356=b:\374\275\203%\032\274O\257\234\274\030\271\206<\247D\025\275\355\327\300\274Ys\254\275\340\377\325\275\305\265\343=\225\226\377\275\352\023N<e\225\364\275\347\2618>\270\332\353\275\367L\232=]gU=\237\310Q\2753\277\231\275\330Ds=\242\245\330<wq\232\274\341\270\245=S\016\267;\t\033<>J^\356;\346\0215\276\372Ca>\271F\222\275\277\357\273=\347;/\275C\022\034\276G\267\357=jO\336=\275\264\301=\257\321\362=t5\000\275\307\tL\276\003\000m\275\264\025\037\275\362!\332\274\332\221\372=\372if=\013\2172>\353\3326=\356\355\006<`\356\017>\033\257\312=C\257\321\275,9\254\275\357\242\232\275\234y\247=\235\247\354=\367\227%\275\227\2565\276\301\374\002\276\003\032\367\274wfP\2755\014\031>\005\347\344\273/\370\205\274\223\333\037>\271\251\214\275s\323\352<6S\000<\030\205C>\365<W>\346\2661\275\250\265\362\274?\n\037\276;\312y\275\303X\373\275\263\305\223\275\3772\273\275\240^\231\275\355\2173=H5W<\n\220Z\275\210\364S\276\023\247\267\274\317\346\213\275C\002\240=\3701d\276g\251\352\274\274\366\007\2768\303S=\243\223\347\274\025Bz=\352<\027\276m\rI\275\225\364\237=\003\272\210=P\254\376\274\343\211\376\274\014\3076>\372\\X\276\220\020\247=\025&\361=\212)\244\275\002@3\276u\027\365;\325\225\221\275e\203E\275\375O\206=\237z\311\275\320\300Z=\026S\026\275o\237D=\215\277\327<\303\367\025\276(\270u\275\333\235\t\275,Y\270\275w\342\324\274\217$\005<\324\2170\275\303\226\271=\243\365\307<\240p\351=\270w\025>gm\t<\326\377\223\275m\351x=\356\353&\276C\271\021\2769\244\275;\232\002\340=\315_\317\273s\367%\2751\343<>\333?$\275\032:g>\320N\237<\371\266\035=HGR\275\027!\310<G\215h=b\003\342;\020.\351\274:h\005>\370\230\206\276\177\214<>(\220u;\204\014\032=\264\214\026=)\304\307\275aV\036\274)\3513;\371\2247>S\247A<\260\n\314<{\023\007\276qW\275<ar\022\276\030\313\363\274s\004\320\275\216\357\034>\223\"O\274N\024\022:H\205\003>\3034\224=M\260T=J\251\252\274\330\315Z=\027\210\355\275I\033\222=\264h\243=\207\034\273\275\367\361\006>cF\360<\352W2\275\213\253\013>g\266\010\275\322(\270=\377\377\217=o\276\255\273Z\002\212\275\240\376\330<OD\335=K\302\002\276\243\260L\276\231\341\020>~]B\276zg\244\274\247:\235=\303\334t=\311,\013\274+k\352;\263\263\221=\275\"{=\317\276\311<\203+4\276GgL\276\003(\"\276\025Dc=+\315\275<\304\320-\275)]\203\275\210m\014\275\362j\\>b\324\262\275\000A\347\275ZG/\276eu\034<c\354\250\274\322&V\275\010\255\373\275\303\220\205\273\250\021U\274\033#\347\275\345z\216\275\247g\r\275[Y\201=\302\007\350=\330\030\351=@\211:=\241W,=84\177=\2012\252=\242;\034>\223y\303<v\026\243=\216\034\006>\203\023\265\275\220\353W<\253M\226\275\353>\256\275#<\326\272HBr\275\354\365\276=\350\246\001\276\177D\227=\240\225\352\275bX\367\274\227\365H\275\000n\013\275\325\263\372\275CK\311=?\006\240=:\332)=\237h-\276\202\271\351=\2605\204>2\244\215\276\332\215P\276\003j\206<\201\264\222\274[\336\001>\247X\r=*\275P\274\316\237\254=Y\314\305\275\221\377\266=r\342\367\274\331\377\022\276\261\254\024\276k\316\343\2756#\266;\2139\037=\245!\030>\320\376\014=w\211$=\300e\315\2757\216\237=\263c\312=d\216\207\274\320\265C\275\320a\352\275E\252\001>\004R\301=\233s3\275G\255f\274\213\324\035\275E\216\023<\320|n=K\033\225\275!\326\005>\276&\222\274c\217i<\035\331\244\275R\304\235\274\357\236b:\037\374e=\375\312\230=\3163\214=c\260\326<\325,\321=\247V/>\005\260\211=\013\\\026\275\022\273=\276\223\006E\273{\000\373=\326\256\230=\210n\303<\313^\242;\272\323H\275\262\3078>\274\357\264=\212CI\276k\342\242\276\314\233\033\275Gf\202\275C\342\031=\315\361N\274r\"\341<G\362\225=\315m\374\275\266\234\245\275j;\313\275{\271\n\276;\311R\275\3322\013=_\375\341\275z\357\374=\373\207\025>\023\2539>\203\016\234\276\303Xz\275L\261\301\275\210\346o>\000\362\347\275Dq\222=\377\247\352=\003\347\323\275zMf\276\021\260\023\276\247\334\004\275\337\240\200=w{\233\275Tr.<\267\377\372<}\005\211\273$\257\204\274?\2118=|Q\216\275\342L\207\274\347\354\231\275\025\261\n>\232\203\324=;?\232<G6\017\275\213.T\276\233.\272\275\036\242\213=\262}\244=[\344\035\276xM9=\373*G\275\233g\355\275+\320{=s9>\275\205\224\343=X\205\367\275dz%=*\322\347\2753U\350=\335\353\342<\345\315c>\260H\r>y\320\277\275\256\260\217\275\024\303:>\257\372\265\274\374P\010\276\273\025\340\275\007k\315<g2\362\275\273\330\344\274G\247\031>\033$\320\275\366\3178>\215\315\">\350n\221=\023\241\301=\263\241\245\275c\2223=\347\270\026\276\253\027\245\274\340lu\275\277\233\213<\212\315Z<b\013W\275c\023C\276\n\255\216\276\343\321\">\237\030\205\275K\t\233;\377\232P>h\326O\276\000G\031>!\234\024=>GL\275\003\311\205\273\264I1\276\331\255\230=\032T\231<\333g\014\271e\351\233=\014\374\300\275\034\033\207\275}p\205\274;\037\364\275\246\317\255\273\030\262\373\274M\223G\273H9\360<,\317)=t\003\272=\243\262\315=C1\374\275\332@\346;[J@\276\037\005N\275)\357\211\275\rN\374\274\342\300\346\273\327\\\004\276\023Ah\2731\352\230\275\347\233\000=\363\305\023\2767\025\006>\t\313\220\274R\312><\205w\300\275m\206\305=\375\223$\276.A\235<\025\212I\275\251%6>0\0274\275\0035\266\274\254\336\303\275d-)\275\373GN\276S]?>i\"\035\275\213v\312=r\245\022\274f\005\231\275\232\037a=\017\364r<RCv=\274\013\271\275\336\221\033\275Q\n\276\274\362\322\014=*\274\346;\220\033\022=\027\352#>\023\356\336=\335\307\354=\267\002+>\263\2438=\230]\203\275\335\032V>\253L5=\255\3425\275\026v\207=\342I+\276\003\331\013>KC\300=\373@\013\276\016\311\227\272\353\227\235\275\013|\002\276\327/\031=G\350R\275[ \332=\210\233\273\275\377\023\227\275\307\314\373=\361\277\263=\217\313\265=H\201\325:F4\200>\233\307d\274\r/\373\275\n\2763=\372*\343\275{\232E\274\340\030\243\275\004\022\230\274\032\301v\275\242\354\216\275A+\002>\204s&\276\025\355\024\275\367\372\210=\227\271\267\275\212l\266\275\002\005[\275\353\223h</Rl>\213\')\275\305\256\376={\306\277=E\300\265\275\270re\275\227\017\347\275\335\226\353:\215O1\276E\202\314=\272\240\007\276\272\322\217\273k\360\215=\234\255\007>{B\217\275P$c=\262\341\n=$\201:\276\037\311\206<\217\364\214=\303\367\257\275Cya>\212D\206=\2260\004>\266t\217>U\257<\276\327!\264=(\365\344=\267\250 =\372\200!=\220\323\203\274\236\004\215\275\311\020\231\275\370,\006\276\017\272\346:E\207o\274\331?\220<7rz=\025\352\r\275\317h\036\276\246:\300\275\246\032\234<7\214\241\275\272\023~=\215\211\025\276`\241\351\274}XQ>\231\231\265\275BxV=\032\342\002>\307\323\325=\232\rs=\312\232\007=c\026p\275\030\317\325\275\246\354\017>G0\026\276\235\222p\276\025O\211=\372\004\216=]z\021<\377Q\205;d\300\036\276\354\224\271=m\315\371<{\255\r\276\372oe\275O\265\013<\324J0<;\"t\275 \247p\275\216\377\035\276\270\356\227;H\275\322=\372\213\005\275\033\373\001=\233W/\276\005\350\223=\370\305\346\274\2177\276<a\376\023>J\225\216<\010\357\217\275hP\332\275\220\016\277:\312\031X\275\357\252\240\273\333\273\320\275\371\246\006>\356\215)\276J\346\224\274Vy0\276\252f\356=6\333->\002\'+\275\025\355\356=x\374\363=\310\t1\275\374\327\031>\030y\356=#\0147=&\2476\272Z\246\026\276\337\301+>\027\205\230<\326J#\275k\335\361=-p\\=?l\006\275\236}K=-\374\264=S\234q\275/\237\027\275\2031\372<\243\360\200=\003\317\000>\034\023\r=\024\005\251\275<\327\236=s\345\320=\022\216W<\315\363}<Aa\225=S\367G\276b\253\322\275\225Y3<\247\346h\275+\243\033>\030\277R\273\335IN\275?8\351<b.?\276!7\227=\325\002\'\275\317\000:=w\334\223<\320\334Y=_\336\000\276-sL<\277\272\355<\"n`=#\331\205;\305)\203=\303\036\321=%\271\271=oT\343=[\362\003\275\277\3010=&\316\261\275f\230\t=y \022\275\251~\010=\242\313J\275;Z\322\275N\030?\276+\343\225\274\371?\000\276\310\340\237=\203\027\222=\237\311\010>5\244\372\275\022\207\373<\240r\254=\306\355D=\004I\266\275\023\305R;&\270\212=\305\222O\275\340\212\252=\220H\005\276t\220\262<h\360\006\275&{\000\276\2214\215\273\177\351\327\275bb\210=J\324\214\276\316\325*\272\301\027B\275zq\343\274X%\250\274\212W\037\2749\363+=2\320\201\275\225\322x=\370M\023=\346\243\022>+b\225<-\243\025\276Aj\272\274$\207F>\250g\367\275\327\335\001\2756=\"\276\355\003Y\275\237\034\001\276\350\251R\275\322\352\227\274\343\323\033\275Hx\266\275\247D\332\275\230p\350=\347\007\373\274\\\003(>\231\371\037\276\223\271\024\276\254.\032\275Q\300\225>K\364I=\337L\207\275\322\342\311\275\321\210E;\216D(;*\336\254\274J\236\365\275\243-\251=\030C\200<\223\001\250=A\271\221\275\343,\037\2766\375\014\276\337$u=\270\000\354=\350\230t\275\247\270\026>\302\310x\275\235\276\227\275\360\353\006\276\375\260\305<Z6y=\005\260\005\276+;\263\274\265\006:\274\353\256\247\275OK|=\207\241\210=\326x\262=\377\017\020\275p\330\224\274 \030\363=\225\273\322<\370nC\276o\312\364\274\237\324\223=\266R\024>\177\2241\275\210\226\235<Q\220\214\275\035sD<\343J\251<%\266\361\275\202\224\213\274\3676\375;[q\n\275\267]-=\374L\276\274x\347\345\275H\330\024\272\272\341%=8\235S\275\355\267\373\274+5\031\273P\354N\275\237\251\240\276\302\006R\275\310\273+\276sh[=Xp\273\274SC.>+\3425<\233\336\010>\335\312\243\274\217O\266=\377Rt=\347Q\264=0\242\265\274\355nA>\265\323N>\373\240\245\275\373\356\245=\363l\243=\350ov\273\332$m<e\347\000>wvJ=\272\\\236\275\037\322\326;X\251*=\'9j>\300\352\000>\246\356\263\276k9\326\275\330D&=\323\235\202=\005\306\325=\334\262\255\275\031[\260=\350\013\014\276\307\254\'\274\246o->x_.\276\2376\301={\232\324\2747\361\266<\025\257\215=\201B\030>\204&\246\275~\200\261=\2532\204=\223g\035=\016f\211<\205\207\250=\251D\t<\267A\366\275\310\237\342=\374\257\000>\343r\361\274.i\006=U\277\247=O\203A>\223\373\331\274\323#\240=\250ij\276\270Y\227=O\363\002\275\373Sy\275gJ\247=\272D\271=\363\003D\276>u\245\275]~ \276\243\336\000\274\205\037$\274*\002>=\323\337\346\2757\260K\276\244\2340=\023\222Z=%\026\327\275\271\000L\272\237\226\301\274\205T>=\200\n\025\276\260(i\274\n\013e\275\364/\222\275\255r\330=\017\265\251=\000\274u\275\213\237\315=t7\214\275\2776+\275hZw=\202\232\351=U-\221=l\250)\275\032\035l\276\024\355\006>\307\242f\276\'\332\241\275\023\370\326\275%\260\213\276Z\2441>o\307\021\274e\344\212=-rn=\250o\371\274\255\226\331=\224\241\001\275\217s\323\275\001\030\313\275\277\204@\275=#\266\274\350t\375\275\336\353\032\276\351\223\254\274W:\350<\317e+\276\020g;=\205*A=\331\253\271=o:\220\275\273Py=C\307Z=\337Z\220\275O~\271=\251e\254\271X\250g\275r\350&\276\330\344\262= \371h\276\207\322\255;~b\032\276\333u\330\275\262\312~\274\363\320\334<\362\231`>2\323\225=\337E1>\355n\351=K\212\022>\3427\241\273P\233\260=\033\304\203>o\323B=\241\336\255<W\214\n>\007\275\253\275\245\263\207\275\262\236\253\275\263\221\\\275\307\240\001=O:\003\276\n\0177\276\0070\003\274\270:\312\274\177\'t=\035\224@\275\276\205\204\275\223\035 \275r\261\005\276\343\222\204\275\017P\001\276\357c\034\2757\362(<8`\362\274]\0205\275|\373\304\274\203\270e\275\232\371E<9N\005>\226\262\276\275\203E\234<\023\351.\275\013\317%=n0\027\276\r\267\364\275V_\225<p\2540=\332b.>\335\256\314;\302\312\"\275\365\235\272\275\247\361\364\274\2236z=\027\350\001\276\360<\350=\033\212\331=q\n\262\274\003_\326\2743\034\323\275\372\'\267\275\302&\312=\206=G>BJ2>\207L~=R\366\221\274\257\031\245\275&\256\001>\031\220\221\275D&\213\275\007\243\203\275\346v\225=\326\303\243\275\035s\001>\373\241\272\275\3301\301\275[\326\243\275\223\247\'=\233\237\210<[\034\347\274\320\014\264\274\345\307o=\362G\024=G\300&\274\022\201a<*N\315\275\277\322\202\275C>j\275\212\266\177\276\332\2250<\3701.\275\207\345!\275\2027\001;;\241\302\274\037\254\260=W\274\024\276\245f\351=:!x=\273\262\365=\265p\242<[\307\014\275\215\220\004\276f\314A=\267&_=ZF\361<\363\345\"\275\210\242N>\202\017\376\273\002Z\221\275[\241\276=\233\3736=6Q\314<O\351\0139\212\357&\275\302\340\334\274-\020\016=%4>\275\031\223\232\274\202H\344\274w\025?\276dv\036\276WK\014>;\202\206\275\313\277~>\245\357\352\275\3241\206=/V(\276\343\273\354=\304L\311=e\216\331<\311.\017\276\273\016\022\276]\007\016\275\000\210#\276P\2717>\035\213\213\275\346\r$\276y\006\247=g\360\357=\034\244\246\275\240\256\274\275rN\006=w\241\323\275\227Gn>\216y3=\037{\010=zD\r:j\274=\276^\273\215\275\335\335\316=\202\232\036=\305U\214=/\314T\274L\3159\276\222*\036\276\'e\271<\237\310\304\273_Y[=e}\357\275bm\324\275P~\306=G\006\003>f\345\244=\2278\005=\375<\013\276Xw\320=\026\260$=\242\260\351<\357\346\375\275e\216\354=%\023\371\275\321{\243\272\271\357\302\273\003n\231\273\350\177U<\375\316\360=\017\316\220\275G^\216\275\005+6=\362\257,;\224)\231\275\222\335K>\340\216\377=\207\235\027\272cr\367=z\256#=S\235\277\275\203\267.\275@N\023>\227\022\321<\355h[=\027\260\027\273\007\031\217\275Z\373b\275o\277\226=\013\267\310\275\233\030h=}\266y=F\337\264<g\266\371<\230u\321=\'z)=I\2647\275\373\210\006\276\212\"\301<e\003-\276\213\322\365<%&\205=O\3228\275\271\323\216\273"
      }
    }
  }
}
node {
  name: "b5"
  op: "Const"
  attr {
    key: "dtype"
    value {
      type: DT_FLOAT
    }
  }
  attr {
    key: "value"
    value {
      tensor {
        dtype: DT_FLOAT
        tensor_shape {
          dim {
            size: 12
          }
        }
        tensor_content: "\000\000\000\000\000\000\000\000\000\000\000\000\000\000\000\000\000\000\000\000\000\000\000\000\000\000\000\000\000\000\000\000\000\000\000\000\000\000\000\000\000\000\000\000\000\000\000\000"
      }
    }
  }
}
node {
  name: "f5"
  op: "Const"
  attr {
    key: "dtype"
    value {
      type: DT_FLOAT
    }
  }
  attr {
    key: "value"
    value {
      tensor {
        dtype: DT_FLOAT
        tensor_shape {
          dim {
            size: 3
          }
          dim {
            size: 3
          }
          dim {
            size: 12
          }
          dim {
            size: 12
          }
        }
        tensor_content: "_a\232\274cz\370\274\300J[\275\177\270\"\276\007\365\202\275\206\032)\275\020>\372\274\273\247\247<\017i\000>\316\227\014\275\000r\374<\010\300z=\255\007\371\275\010uw\274U\335\325\275F&\266=\223FC>Mx\216\275\272\354\330\274\246\340\277\275\007\026|=\303\373\254<\224\250\003\274[\247j\274B\311\246\274\223\374\207<f\"F\275\211\365==\202Hf\275\237\365\373<_\246?\276/F\203=\223\370(\275\007|l\273\010\263\004>\203L\025>JF%\275\330\003\334\274h\014s\274R]y=\314\363\205\273\352\021\324=\247e\226<X\270\030\276\3620Y\276\320yq=\3624k\275_j\212>\302\350\223\275\303\264==\307j\262\275\343\1776\2753\324\036>hN\256=\360\034\336\275\370\372\266\273`\363\325=\013Y#>\365\244\350\275u\253\346\275\350\311\310\273\307(\235\275%\207P\275\013\225\313\275\205DS;\377\234\263\274\216\177\225\273\256\3140<4E\030</\363-\275\033$\003\276\3558\177<\243\300\205<\221\032\226=]&J<\330\007]\275\020\226\327\275Bvf<(\245\220\274\345\356`\273\277\n\013>\305`\031\274\313\235\247\275o\'\234<m\262\246\274\2508z=\207\037@\275\370\221o\274\243\021\360=\022U}=\033\377\024\2760Bd\2752\277\334\275\017\330\034>BY\030\276\333\371\037<\257S\031=\340\265\347\275\327]\354=\243\224\332\275E G\275\027[\344\2754\316/\276\347-\201=\253\276\336=i\327I>B\347\346<\340\211\363:\000\217\034=\203\001\277=\313\307\007;\202\315\205=\242\0373<\'-l<a\216\000=\201//\276\216b\'=\317\331X>.\377\013\275\207\013 >\035u\320\275\017\264\252=7\304\255\2752\244\271<+\361\212=0\216\264=\335\376\342\275\272\261\026=\303\213\004>\343\007\035\275\343\202\n\276@\357R\276\273\261\026\276\307\322\227\276\313\226\023<\t\365\002=\203\275H\276\235\307\021>#\2510<\301\320\n>\323-0\275-Ja\274\036~>\276[\002n\2744\211\031\276\'\347\205\275/\202\033\273r\273i=\342q\301\275\212\307C>\270\343\010\275\345\310\221\275\004\306\006\276\2731!=\"6\213=\251;7>\2368 >\221\264\243\274\346b\312<\257+\326\273\007\024\363<\303\027(>Wt)>\377/\341\275\317\307-\275\252\225\366<\232\337D=\255\\R=\332h@\275\022\345h=8\217\013\275\036@ >7\247\037\275\nRr\275;\000\276={\323\375\275\373\023\016>+uU\275B\021\005\275l\027\007>\346B\276\275\347\231\372;F\377\225=\002EZ=\037\210\037=R@\316\274yZ\214=A\006\r\276C>\375\272[z\327\275\007\326\216<\211\263\210\275\016\227\">h\\{\274\230v\352=\0300S\275\357\320\032\276\317\007\001\276/s\032\275\365\226?=uw\262=p(\261=[\231P=Wm)\275c\013i\275\307I\013=\001\321!\276\222\240:=\017dD\275\\\355\230\275D\312\200\275(\255\245\275\020\235\254\275w\357:\274\224\340\304\275*\251\245\273\361[\257\274\220\253Y\275\351\272\240\275@\306\342\275\240\326\264<\n\231\323\275\210g;:\203\330\260\275R\212\\>\367q\003\275\243\347\320;\274C;>\270\235\262\275\243\340y\275\010\377\2608\337\336\366\274\205\236T\275\027\303-=\322\231\374\273\345Y\357=\304\367:=\377\260\n>HwD>\373`7\275[\203\365=jY\361=j\301\275=\317\276\302\275/\310P\274\251\345\237\275\315\360\261=;\256N=?\277H\275\310\247\343\275\373f\023\275g>\330=\247\336W=\326\357\024>wc\304<\276\022-\276uFV\275\033d\367=A\3253=\375\026H\273-\272d>\305\213\255\275C\025H=;\377\264\275\342\000\023=\032\260@\273\014\276#=\027#X>\207\310\266=\245k\"\275C\031\212<\246\2249\275\265Q\326\274{\260y\275\375\017\204\275\317\321\031>+%W\275:\250\264\275HI\013=\363u\300\275\000\364\230\275\'\301j\274F\034\275\275\031\004 =\017\266-\276\300#=\276\357}\216:J\273\316\275)\355,;|\263\224<;\361Y=\343\270\005>\245\244\315;\037\035\336\274Kf\331\275;<g\275\274\221\234\275\320\312M\275_\372\023\276aJ\232=+m\016=\355\272\336\275\352\355\374=\333\223\261\274/\031%\273\363\244 >\256cC\276u\210)\276\362\242\354<2:\":g\346\372\275\370\346\023\276\365\202\264\274\245A\352=v@\006>d\374\000>\342\256\234=\177\033\243\275O\372L\274\317\000\335\274-\365\346\2757\350\357\2758\312>\275M@r\275,\312*=\361\350\245\274\273\002e<\250>\027\276\266\370\217\275\215 \177\275\257\'\241=\352\215r\274H\324\327\275\324|\251\275\227\337\034>/\255!\275`\016\354\274\300x*>`\374\351\275L\351\025=\"\236\245=\360?\355\275x8\255\275\246h\250<\360*N\2744\361\r>mLj\276\227\356\340=\243\r\035\276j\017|=1\204\223\275I\211\254=\227\006\252\275\340\r\000>\322\350\252\275\rH\304\275Z\203\001>\365m,<G\213;=,\310\022\275\367\312\333\275\220\206G<\036\r:>G\313\331=\342(\365=\213\005\223\275\357\254g=\374o)\275\267\266\004=\321\n\037\276Q\373\252\275\232\351v=\232Sx<\020Zb\275\212\334\376<R\271\277=\227\354\035=\177\301\'\276\007*\262=\014m\220\275#\242\211<\367\210\307<Bu\'\276\0378\336=\321\010\031<\027=\252=\377\355\275=A\250\037=\315\215\356<\241B\030=g\251\315=\032\304\354\274\232\256\204<\313\346i=I\365\243\273\274\331\000\275\302\264R>\307\035K=\266f?\274GY,\275\020\250\341\274\270\354!\276\323\236@=#\004\342\274\033`\315\275\323\335m\275O\271\033={\'\223\275\017\265U=[\232\023>\003L\235\275\363w\357<;X!\276\2210\210=P\t\277\275\203\013]=-r\245\275\343\230\333;3\371\324\275b\272f\275#`\226<$\337\301=\224\253\303;\323Z\002\272\365@\017=\217\340\016\276\233\033t>\235#\205\275\013\377\033\275\255fa\275\007;U<\002\023\225=\357\321\302\274\262\225u\275Q\026\271\274\020\342\246\2745Hq\275D\262\231\275\177/\366=\345\036\253=P\350\346\274\276f\237;\375?i\2755*6\276\256h\231\275\361\'\035\275?V\334\2757B\247<[\035\001>\265\220 \275\375:o\273x\332q\275\362\036c\276\262\205v\275\271`0\275\363\re\276\243\t\371<s\246X\275Q\340\307\274\n\241\344=\247n\215=\211j\233<k\004\230<1\371\216\275\020\321#\274o\207\261=B~\215;\025\210*\275\2033\212\275\340\001G=J-\327=\222!\204\275\245\275\322=&\274\237\275\tK\000\276O{\275=\037\362\236\275\177\014E=c\213{\273$A\306\273\322\342>\275\017\273\365=+^\274\274t\303\302=\253>\335\274[\3411=\236\020\202\275o\206\364\275\357_4\275Q\007\263=\343\377\016\276\223\223\213=\253Jn>\r\257\242\275\014\316\305\275#I\326\275\352c\034\275R\230\376=\343\200\246=\36730>\234\352\270\274\023D\201<e6\321\275\245\245r\274lR3\275W\307\023=\023a\335\274\257\361F\274g\023J>\347d\200=\312(\307<`\034c=M\035\264\275kqA\275\220\013\232=M\230\275=\252\246\366<7\332\336=klD=\354\245\253=\'[\001>?\267\336=\370\251\353=\307\376\n\276%\030\007>\212,\223\274\231\250\251\274?\"\225=U\324\202=*\024F<#\217\233\2747\277\263\275\3213!=p\236\262\275\021+\005=?C>\273\350\370\260=k\352\002>\237\371i\275sSd\276\021\357\233\275\265\006\270=\327\007)>+\322]>7r\000\275\213\003\277\274\224J\310=\376\316\254\275\313v\006\275\320%\226;\2079\035\276\265\256\200\275\364`(=\363\377\332=\021ZJ\2755\224\326\275_\320\024\276?\216\006\276q\222\000>\r\357\016>\25353=\213\3161=\207\'\254=rX\3638Fu\210\275\"J\227=\240\374\240=\n0V=o?\244\276p\277w\274\'}\005\275\212\366\\>\021R\002\276\007\177\266<\260\301M=\002\205P\275+\246\230=?\256\266\275\317\177+>\242k{\275\237\302M\275S\352g<\223\230\016>o^\221\275\207\230\220\275\n\2513\275\200\275\245\275\330I_\275\026G\217=\233$j= \224\220=\220\t\371\275\260(%=\271\362\260\273\237\266\346=\013\010g\276\233\222\235\275\205+ =Z\007r\273\305\237\030\274\231\266\007<@,`<s\204\212\274=\271O>J\346\016\276j\206\003\275 \215y\275\334\307\221=\216\3036>k\361\r\274\\\342,=\257\360\323<U\375w\276\364\353\010\276\302\257\342\273\230\\\005\276\303\357\264\275\005\014\231\275\004\336\204=W\217\002\276\002\231\002\276\337\331\306\274\277d\260=\335\236Y\276K\026!\276\365\032\317<\177\'\346\275)G\005\276\330Q\335\271\014\"0=\370\230R\276+G\344<\234\251\261\275\032\1779\276\336Y\025\276w\233%;kS\013\275R\245\034;\332\001.\276\007\t\337=E\232\340=\331\020J>\303\0278=_\320\362\275\276\222\221=\222\n\210<\265\323\243=\277t\235\272\346\235\257=\273K\346\275\246\256.\276\n\233A=\273i\006>\255\321\305=~\373\246;\357\'\346=B\177\370\272\033\204u=\247\342\235=\352\222\317\275\315\245\022>:\327\373\275\313\231\272\275\323af=\370i\265=\255\014\024>\025u\377\274\274\257\002>G \275=\365\367z=\320c\262\275+y\034=\312\345\371\275\347\331\234=\374\177\274=\027\215a\276\010\037&\274\375\3057\276\347\347g\275oUO\276\204\354\234<\311\\.=\257(a<\255Qa\275\023\254.\275\307fM=\017|]\275\024Q\270<\334%\022\275\213\306\305= \367j=Mj_=\361\t\273\275J\031\231={\032\237=\215\315\356\275\204_\201\274\346\372\"={Pk==\330\306\274\242\007\315\275\265\303\341=\371y\204;9k\222\275\262\245T=\343\351\223\275\241\314\224=\"\213\352=\320\364K\274+(\206=wic=\330r\337<\313P\320\275\250\304|<}N\021\275\234\263\n=\007\357+>\323\210\010>rg\365\275h\2376\276E\034\301=x\340\231\274\271\300\225\275W\006\376=\237H\206<\231\216\024\275\3777A=\304(\301=\343\022\306\274+ME>\325\300\003=\220#\014\274W\237\010\274K\243g>\233\326\224=\201$\204=\261\320K\276\307\000\356;\352\301\253\275]\236H\275\307\307\321\27579\233=7w\241<*\336\370=f\302\004\275x%\343\274\177J\022\276X\257*\274\267GI=\2402\036>\254\0011>!4\224=7\277\014\275\037`\177\274\267\350P<%\036\342\2754`\242\274\017\234\275\274\007\331\232\274\200\344\245<2P\200<\"9\342;\367\257\245=\032\240{=\265\260t\274\234r\267=\367f\032>_\026d>\373j\265;\334w->M\001Z=\035\020\326\275f\236\226=\002aQ\275R\301\324<\362\257\002>\253\336\303\273\323*\254\274\3233<\276\177\336_=*PR>\245\342\243\274\374s@=n\242\004<\203-\320\275\332\217\376=\023.\304\275xF\035\276\377\207>\275x \036\274A\225\021>-*\261<2h\264\276\032t\361\274\t\3227\274\023\017G\275V1\252=\312\244\356=+t\213\274\267W\\\275h\300j\275\320\336\331\275U\325\201\274\023\355#<\247\306-\276\245M\342\274\260m!=h\031Y>\035Y\326=\177R\210\274\tZ2\275\3315\007>\314C\233=\347\rM\275b 2\276M8\353=\"\372\317=\270\000j=\245\201#=n\252\013>\216x\235<O\266\303\275\254QB=\342=\243\275k\033\305=\364\235\014\276\230(k>G\tr\276\237\374-\275\367\373\024\276\203\231\267=\250|g\275\247\274\227\275_\325->\r\341\327:k\336\255\275\213yI\274q\277\244=\003\002(>\216\222\247<\273\271Y<3\357\261=\337\000\354=\211Y.=\245\267S\275\2707\364\275T\266\247\274\303W!>e\331\235;\013I\n<\002b\330\275\332\305\213\275\016\251\257\275\375\202$<g{\334\273\020z\014=\325\230C=\277\014\246=\354\2051=\325\317\230\275\257\372\037\275\261\372\037\275\335\234]=o\354g=Y\312\025\276U\337\351\275\277\325\221\275+F\372;_\343!\275A9%\276k\006\323=\262!\001\275\372\034\224=\237\361\001\274Z7\336=#\266\210=u\007\301\275v\325\235=\023\201\367=\326\350$\275\343\223\231\275\370q\331\274\330q>\274F5\260={$&=\303\0000=C\240\274<i\250!\276{\037\264\275o\246\202=\333\371\030\2760Y5;\263\252(\273\227\201F\276{\260\334=J\373T>\010@\220\275!\0316\275z9\234\275\300e\263<\332\n\307=\206\314\300=\212\235\352\275\362\273\345\275\367\372\372\275\256\261\227=\2300&\2763_w=\037\367B<\000\256p=\321\033\021\275;r\330=0!\345\275w\t\002\276\004\264\213\274\035;\371\272\271\304\312;\354k\303=\"R0>\342\303\036\275\243\303D\275\240\203;=\307\336\327:)\321E>\013\243\236\275\233\244\035>K\321\234=\334\243\032>5\207\001\275\203\240\313\275\367\352A=\365\372\346=\353\236\035\275\373\333a>\262\272J=\315r\370=\t\235@>\367\032\253\275\273b\201\273\370s\024=\025:z\276\273\232\001\276\223\265\365=C1\275=_\230\241<u\200\231\275\247\335\235=\032M4<o\320\227\274\367\323_\275\036YK>[y\232=\007\313\301=\374\350\261\275\"\241\333\274_\217\250\275b \341=\034}\217\275\035\334{\275\252E\221=\342\020\375\275-]z<\005\262\346\274\321\200\004>\367^\032<s\233{\274\263\234u={\327\375=\247\035\321\275\226\365\212<rU\227\275\237\323|=\037\370+\276W\t\232\275;\250\200=Tt\206=a\224<=\360-\267=\360\022 \276\315\337\021\276\027R\254=RD\"\275\372\313\341\273Z\332\211\271\210]\036\276\262:\333=\317\004\003>\270\224\354<\353\354F\275u.q=\327\220n>L\177.>;\357\213>\375?+\276\2460I\276\314\273\013<zG\037>\313tX;\257\021\347<9\2450>\013~~>m\346\201\273b\014p\275h7\373\275\222\270\205\275\276d\026\275\275\375\350\274\"xo\2757\305\001\276=\350d=N\010\017>L\260\035\273\357,\032\275k\223\200\275X\244\356<[\210k\275\3353\374\274Xf\316<\000\377\356< \300\001>\220\033\200\275\230\371\304\275\213\264\275=\225\025\017<X\322\010=\345!\016\276\203\311\271\275({\317\274\217\244^\274\014w\202\275\037h\\=R\305\217\275\"\013\247\274Os\265\275\262\027\345;\317\310)\276z\256\346=\036\344\303;\203{\306<\254\316?\275k\235V>O\177\354\275\343Fo=\267,\000=e\032:>\360\201\245\272`3\243=\304|L>\242H\233\275NX\220\273\"fV=\2753\245\275h\271\261=\214\254\240<Q(\244\274[s\205=J\3702\275O\313\206\275\263\201\362=[\027,\275\2458Q=\300\343\021\276\016\220\237;\177\311\001>^\273\023>2\223s<d4\270\275J\241\351\275I\376\226=Io\311\275\036\374\213<9\256\006=\345\254\253\275\343!\005=\032\322w\275%\223\254=g\036\257=n\273\211=\277U\020>\"\360P\275+\024\241=\210\277?\276\277\256=\275+.\215=\023\366U>sF\230\275)Z\203>\364M\000=H\305\340\275\253\346\266<|\242)=8[\213<\027\271\304;\'\276d=\227\010\264<\223\017\221=\247\206\241\275\261K\'=\035\355e\275O\177\007>\305\364{\275W\264\232<:\322W=n\315\">\014\017\243\275\317/\023\275F#\240\274\027u\004>gD%>\252\251|\275\270-\251=<\327\232=-s\321\275\3606f<Mh\023>\230\215\373=;\336\210=\332\247\352=\207\271\270<m\211\035\276r;D=B\363\344\273\305t\254\275g\327\000>3*O>(\014L>_\310\"\2768\363\205\275\215\273W=S0G\275\260\017o<5\206\014=\233\236\346=\363\255.>2\344\315=\217d\n<\317\222\226=;\325\340=\3254\324\275\311\0249>\\x\250=\366\343\262\272\240&\021\276\373\275\n\276\342\273\262\274\002\226p\2767\225\337\274\361\336:=<\250\031=\357\225\275=%\261b<\013v1\276\230Sy\274&\313\257\274\363\241C\275\016\375\240<T\374\202\274\252\372\233>\315>O\275\217x\267\275\313\260f\274\351\025\300=\3230^=\353\024\361=\"\365a>h\377S\275\355eU=D\244\272;\373\362\235\275\250O2\276m\306\272=/\332+=\327&\200=\324!6=\367A\244\274\201\204=\275\017\n\356=s]\254=`uC>\342\225\210=\"\337\331<\307\273\354<O\275\365\274\316\210\225=*\230\025>E\342\365=JtN\275<G*<\025\306\033>Z\313\375\275\177*i=1.&>\237\344G\275\027\267\316=R$R\2754\034\216\275\371\344\014>\350\345m=\247\263\032>W\213\005>\223\313\374<\217\310E=\315\300\321=\224%&\274\220A\332\275\275\334f\274P\237\202\273\260\376\314<;\352\006\274\003\322H\275\372\201h\275\';!\276_x2\276\002\254\367=\365*R=\324\351\n\275xLP<[\267\014>\003B\021\275c\214\177<\245\337s<[\376\360\272\340\017Z\276\263T\243<:\027\236\274{i\014>\356\265\030<\217/\006>\300\374\325\275$\307\273\274B.\017>\020\220\273<\311\375\231=P\230\240\274w_\300<>\327-\2751l+=\332\245\310=\253_\221\275)\330H\276\362\223\036\275\'ux=\006\031:\274\335\216[\275#\230\023\275\273\214<\275\241E/\275\267\322\354=\205p\331=Bs\026\275\267\254\337;U\223\225\275\326\260\027>moc=-\202\216=\313\330\213=\301\002\000>k\226F\276/\277\034>\245e/>\300F\366\275\237]\342\273-:\256\271\253\245\371\274\353S$\275\033\'\367=\255B\t=\270\006\010\276b\320(=2)H\273cN\216=Qg.=\330q\342\275}\227\367\273\320\226\364\275\266\313\000=\'\013\300<o\353\201>\033U[\275\243\256d=x\332\270=\223q(>Z\375\t\276B\321\376<\024\265(\276\360\310\204=\2508L\274\320\242\237\275\233\253\242\275\330R\032\276\314\363D\275\351\006\312\275`\313h\275rT\030\275kc\014>R\303\325\275"
      }
    }
  }
}
node {
  name: "b4"
  op: "Const"
  attr {
    key: "dtype"
    value {
      type: DT_FLOAT
    }
  }
  attr {
    key: "value"
    value {
      tensor {
        dtype: DT_FLOAT
        tensor_shape {
          dim {
            size: 12
          }
        }
        tensor_content: "\000\000\000\000\000\000\000\000\000\000\000\000\000\000\000\000\000\000\000\000\000\000\000\000\000\000\000\000\000\000\000\000\000\000\000\000\000\000\000\000\000\000\000\000\000\000\000\000"
      }
    }
  }
}
node {
  name: "f4"
  op: "Const"
  attr {
    key: "dtype"
    value {
      type: DT_FLOAT
    }
  }
  attr {
    key: "value"
    value {
      tensor {
        dtype: DT_FLOAT
        tensor_shape {
          dim {
            size: 3
          }
          dim {
            size: 3
          }
          dim {
            size: 12
          }
          dim {
            size: 12
          }
        }
        tensor_content: "\233\353\366=\007\271,=C\035u\276\331\211\262=\325\261\231=3\023\001>\177\303\353\273\223\2676=\3035q\273\037<\265<_k\016=?\337d\275\325\304t=\\\'\221<\317\374M=\253r\314\274t\204\214\275\266^\233=:_\204>\375\374\335=:8i\270j\241F=2\020i\2751h\304\275L\346B>\003\226\321=#\200\225\276\312\370A\275w\270~\274G3\376\274\260\332\207<\013r\211\274/\234\243\274`\032f\276\337\310\376\275\266\'?\274\350\007P=\0201U>\205\211N>(\330S\275\004b6\275,\224<\275g*\232=\377\342\300=\370\006X=sK\364\274\r\273\344\274\263V\006>\333\002\260<\n%\001\276=Qh=\034+\030\276F\272,>\305\323\307<\235{\370=V\354\006>BNC\276\370\274\334\275J\r\345=\271R\003=C\205c=\024v0=\237U:=%\267\203=du$<N\257/\276\354\223\216\275\014\224\024\274R3\026\276Z\324\350\274\355\214u\275\237L\234=\222\n\342=*eM\274\007S\004\276\253\255\256\274\272\2303\275\235\345\355\275\264Q\212=\032\305N\276vu\264=e\331\375=\32087\275O\365\263<0\346j=G\344\331\275\377\2274=\375\322S\271\"y\\\275b.\352\275m\365\317<*\237\330\275\345\037r\275\207\201\211\275A\216\233=\225D\365<\214\326\265<Q\275\301=\267\233)>\217\307f\275\321\0363\274[\034\276;\362I-:5\005\r=_\026j\275p\237\006\274\344\376\260=z\325_\275\267{\201\275\277\205\230=\233\r\206=\003\203$>\020R;\271\253\333\340\274-\264\370=\251\222\017=x\2005=ui\245=\262S\212=\001\360\017\275\224.\227<o\266)\276S\201\347\275G\371e\275\235\013\177>s\010\263<\3470\254\275\007\243\331=\250\326\334\274\003\251<>\020v\335\275\372v\035\276\002\026q\274\033\002\303\274\354\323%>E\022\004>\250\364\220=P\232N=z1\226\275\207\363\246\275\233\272\354\274Y\245\310\275\216\327\235<\353l\221\275\325q\371\275<b\004>\322\355\010\276\325Mq=\200\201\270<\210\027\327=(qc\2754m\204=@\034G\275\352\376~\275\237\215Z=\327b\002\276\016\265:\275\235\001\304<\177X\345\272x~Y\275\276\332\256\275\302<C=#Q\253=G9.=\225S\355\275\017\271\316=_}\334<\276o\241=W\r\031>Mz\"=K\356\271=\231\237\032>X\336X\274\313=\'=\207c\215\275\"\0203\275\305\215\371\275\337/\253\275\022\215c\275\355\304_\276\032\337P<2\211\274=\337\256\361<\315aO\275O#`\275\303!\262=\352A\314\2757\217\206;\252Ck\275\027a\332=\257\030\260\274\023!\223\276\203v1=\237\361\324\275S\215\266=Z\340\241\275\2142&=\"\206\003=T\342\000>\320\343E=\302\374\354\273\217\235\014>ea.\276\367\230+\274\222\264\325;\247\013,\276\010\207\'\274g~\006>\027\260\203\275\224\3014\275\301n\021\276o\020\212=w\330\271\275\302\0036\276\240\213x\274\020\024\247\275\302k\372\275\201\262\202=\240\302\252=\"\252\331=\261eG\275?0\256<+9\333\275d+\250=\276\0003\276C\026\243<\037h\214<\200\332>=$\000\211\274>\272D\275\260\0168\275p\336\313=\370z\340=`\245\335=z0\313=7\323\336<\202\271\247\276\311\014\252\275Rb\r=\367\335\273\275D\201\210\274/\205\217<\017\331b>H\371\013\274n\275\'\275{\0064\276\"\342T=\213\271\320=5\0148>[\362\322\275E\371\331\275\217\316\240\273c\347\327=\367#!>\362\235\037>\005\330\030\274\343\245\266<l\354I\273\'\222\333;\3220\317=\010\2302\275\312\010\270=\035:x\274\255\035\221=\257\005\343=u@\314<Gl\010\276\237\342+\2762\014\316=HUB>\220\312y=\005\002\213\275\305\307\312=-:\304\275\321\257\234=\313\007\332\273\t>\007\276,\224\215\276\303\252\370\275\343\365\253\275\264*\307=Mix\275\002\201\255\275\235\216\364< \224\352\275\256\003\232\274\rb\325=\317n.=CR`\274CCk=#\311\235\273L\337+\275$f\n\274S\253k;e\001\365\273\262\331\273=[4Q=\270\311\277\274\376\025\257<\014\351\013\276\221\023\272<\000r\371\274\305\244\346\275\030\270\026\276S\321\000\276\346^8\275\'\306\212\275p2\342=\244\352$\274|\277\021\274\221\223\034\274\300\212\220\275\022\227\204;Y\274%=\200\010\250\275\370\002\343=\352S<>\365Y_:\177\021\235=3\342n\275\340#z\276\036\216\035>\000\006\272<_\316\267=9\266\034\276\315\215\244=\350;\350\274+\3143=\316\252\243\274\333B\234=\234\362\203\275\270\312\n>\r\203o\275\220\253\361=\234J7\276N#F>9\r>>b\205\014\276\005o\243\275\217c\200=VI@\276j\247Y\274\242\210Z=\227\201\215\274\217=[=\344\350\004\275N\255\r\276\255\357\033\276\337\271\004=\263\256\377<h~\375\274\246S\244<\250\254\351\275\373\000\352<8\006\004\276=l:>p6\305=Cq*>\362\255\320\273\302\363[\275\037\010\001>\003p\032<x\323\364=x\224\243\274Kto>\313\231\335\275\250\3137<\023\341\224\275\177\342\266<\202\360\365<\327O\202;\333f\206=!V\025\276\263\335\264=\007\006\024>\276\341\310=g\306\037\275e\003\006\276\0201q>\337\377K\275[\001\177=+e\035\276f\320\263\275\321y\036>\245\337\334;A\014)>Z\250\233=Q\350C=\337\324\006\275i\316\264:Z\326\036\274\237\305\324\275\273\301Y=\371\356D=E\213\366=8\016\326\275z{\275\275\345\267\245<=\304\343\275/\237\010;e\266@\276\001\211==qx\254\274\227\361%\275s}t\275\317oz=\023-t\274\321$\252=-\336\271<\n=Z\276|}7\275g\030\177<\334&\004=\315p\340\275koe>\375\261r\275t^\253\274\215\230\210\275\242\270\230\274\033\342q\2758y\372=\322\320\017\276\242\2430<*\304\355<\0337\245\2747\0027\275\265\346\244<g\247,=\033\264\206=\322\301\304=\1772\235<E\217\257<8\223I\275\t\327\205\275\270|\323=[\003\035\276\337\017J\275u\226\341\275\323\336\207=M\033\202\275\3508\356\275\346\256\001\273\215\261\326=\204o*>`Kd\276\207\"\367=Bma=\231\003\251\274\315\346\221\271\003\347~<\331q<=\247\n=\275\367\\\025\275\316\257\311\275\206\276\017>;Zb\274\3751\226=u@\350=\215\000(>\313f\220\273\227S\224\2754\361\003\275\234\211\220==j:\275\177\257\203\276\251\247\037\275\246%E\274\277G\244=X\003\212=\340s\305\275U\035\212\275\337\nt<\367\277!\276\022\313s=\353\022\032\275\327\347\201\276\030\034\000>)\212C=\263\201\224=\211\262\202>\261\nK\2751[%\276Q\322\312<]S\000=\271\014\025\276\372Hb=\372\330\232<E\346\327\275\372\036\333=\270\031\371=}>\216<+9\351<\265\242s>\363\315\\\275\344_:\275G\312#\274\037bI<\256\231\250=\247y\252<\222\316\000\276\230b\366=\330\341g\2768\237\346\270\262\321T=\242\277U>\007\0364==\360s=\317\0300\275\364\345\303=\205f\320=\247\375\260\275\343G\247<\362JX>\236\223;\274k\031g=\245\004\252=\240\027\222<r\021\375\275\177\022\265\275\317h\355<\376X\007;:v\347=\010l\361=\216\025\206\275\302\037(\275W-~\275\273\036\024<\017\\\214\275\243Z\256\275\203\217\302\273\363\351\204=\264\256\306\275\020A\221\275j\216\323\275\275q\254\274Z\236k=F/\220\274g>\232=\266\265\032>\322\264\233\2752J\037\274\343\336\026\275\362\220\206=\265\036\312=\235%\361\275\225\234\000\276\203\212/<\266\350\272\271TZ\255=\'D\013\275*\311\242\274\333\261%\275`\354\276=\317\327\014>\241H6>\375V\340<\313l\352\273K\355?\276J\213 \276ny\233> \350\227=\375D\324=\273\345\023\275\310\005l\274Q\014\004\276\036a\225\275+\357\020=\230\234$\274/T\242\275%\332(:;\347!=\234\331!\274g\267#<\227f\216\275w\300[<\005\346\252\273\350\037s\275j\240.\276\036\352\022\275\337*\247\275WKo>\305y\307<\027w\212<]\324_\275\3023\003\275);\242<ma\341\275`\263R\276\024U\202=\343\257\377:\371\007\253\275\204\023\246=\007\031\033<\302\0260\276\232\300q=\367\257@\276\257\357\366=\347\007\213;X\242\267<\346v\000\276\352\310\370;d\201\257<\367\0348=\363\202\342\275\333A\326\275\3515\221=\241\033\013\276\357\376\254<\n\223\215=\377S\210\275>\223\230=h\0040\276\356\321\255=ca\310<\364\262\237\275\337\222\273=G\255X\275\353\202\370=\204\0037<\262\340\332\274U\253g\275U\026\364\275\003\326\240\276\377\034s<5MS>#\303m\274\3405!\275\365\235v=\027^\323\275E\301o\274\203\275\360=\253\321\'>{2\007;\366 4=\243\353\336\273c\341\272=\\>\307\275W\010\r<;\245\214=\224_\226<\257.Q=\333e>=\003b[=\215XE\275\373\251l\275w{\351=\272z\271=\313\211^\276CJI=R\370L=\310\232\037\276S\315\237\275\002\030\375\274;{\r>;\006+=\033Z\323=\217\233\342\274,\211\206=\232\330\303\274\243-D=\017\353\207<\323F\357\2753\006\305=\002Pi\276\313\027\377;x\343y>m\'c\274/Z\224\275\366#\261\275\213\345\t\274\207\252z=\t\273B=\177\367\236\275k\306\232<2\212\r>F9\003=\315-\025=\333\022\022:\253\023\035\276\365i>>\343Nk<\243\227\025\276\177?\264:\264\301\267\275iB\261=\277\034\255\275{\257I=]\017\201>/Q\223\276(\247\363\275\317G\327\275:w\350=\212;4\275\372)g=\260\037\310\275r3\005\276\346\305$\274\270\007W=(\217\006\276.\023\220<1\036\225\275\346\330\202<\036\0261>\177SK=\237\024\200=\263\001\266;\017f\324\275\3306\206<r\230s\274\361=\016\275\312\037j\274\353\351\336=\215\215U=\374\007)=X?\354=\346\010\263\275(\350\275=\034\232\021>\325\211\333\274\232\315E\275\245/\017\276\243D\270\275\212\031\210=jY\223\275\347\243O\275\340\205\273\275\204j\303=\000TN=\021\035\247=\323\2178\275\0258/>\005\364\320=\247\016\251=\353\033\210>\334\315\221\2743\277:=x\361\014\276\237T0=\0174\336\273\253z\000>\251}\217\273`)R;K{\236\275\220\036\215\276H\224\334=\345]\"=\025\3354\275\253\270\243\273\224A\007>\371\356\205=\337\3118>\016l\272\275O\034\305<x\266k=\225^\344=X\322:\276\222D[\274\217s\346;u\200\"\276\322\320\360\275\300/n>eJ\245\275_\311\022>\207\376\343\275}\352\343\275\343f\214\275\302k[\276\223\014z=\220\322\360\275\316\255\211\275-\376C=\023\336W\276\323\275c=\205\360\356\274Z\362\014\276]\204\\=HHE\276w\n\252\274\372\024\274\273o\244\017=\001(\307=9\257\004\276G\263\233=\363\3176=\213\367\023\276\377\r[\276\255Se\275*\256K\276\321\342\202<g\266\013>\355rx\276\307H\003=\371&\244=?P\225=(\242)=\312\231P\275\317cH=\215\021S\273\204K\310\274\304\003\273\275?\322\200=%\312_;\230\005r=\216\356;=c\237\013\275\002\025\006\276\357H\300\274`\217\237\275\212(\026\273p\334\256\2750.\246<p\261\320\275!k\306\274\337\032\n>\376??:\365\301!>\263\307x\275B\274S\276#\000[\276eL\224\275c\0033=\367\355\346\275\365/\232=\313\252\375=\344)\013\276\3576:>\326\340\035\275\310P\032=48E>\222,S9_\2623\276\363\364\027\275\037@\223\275\213\017\005>\350\350K\276\203\267L=OYp\275\257\026U\275\367\225\272\275-\344\025\276\02302\276\271\324\034=~g\017=\025\277\254<\366\t\034\276-\347\036\275\205\010\002\276#\031\335\275\010\202\270=\213\262\275\275\'\355\236>kZ\373\273\003\'\013\2760\312v=\027\251\213<{K\231\274\247\245\220\275\227\203a\274\223\003\033>\340\214\230=\321Z\300=z\340\'\275uo@:t\317\232\275\360\2112\276\213\235B>\257\260\242\274\307\315\211\273\302\006a\274\254/\264=\352\206\010\275\313#\314=+\207&>#\211\215<\213#D=\355.\376\273\327\203\r\275\000\220`=\332 \347<\353\374\271\275\020\375\324;~\320>>\037\265c=sa\037>\315d\360=U\021\225\273%\206O\275\216\301-\274K\201\347\275\022s\331\273\017\273\321\2753\332\026\275$\377K\275\373\'\200\275A\230\302\274\325)\244\275k\371i=\345s\001>\0034p\276\006&\313=\255\234\223\2751\242\263\275Ug\207\274/*8=\277Fz8i\264\312\275\310\\%\273\255\310\306\275>\363\236\275\310\272<\275\277w\'\275\252\322<\276nD\201=\353\317\242=\0021\211=\273\204\001\275\357 l=\330\272<\275,\241\220=\355\261\025=\021\235=\276\020\266\376\275\363\037,\276\325\206\014\2760&i<{\354C<\322\363d\276\357[,=\010%V\275E\254\211\275;\002\025\276p\313\"=\266;\247\273\333\324\210=#\372\276=\274<\026=\320\367J<\367`\266\2752\321U=-?\330=\372L\376=\227fl=\306\3310\276[\246<\2759\031\032\276\312\226\021\276\t\210\216\274\013C\024\276\217X\203=\227\204\003\276\307\3636=\250?\353=\r3\016\275u\334/\276\370\235\231\274\2319\210=\342<\257< \312\227\274Nw\300\275\332p\201\275\242A\026>\0375\"=K\242\223=Z\274->\223\307=\276\344\366\006>\033\n\010=\372\254[\274\317\320\210>\275`\031\275@1J\274\273d\301\274K&\t\275\237&A\275\253\271L=\225\037\214\275/\341\243>*\227\250=\224b\025\276]\232i\275\370@J\276\202\\\\\276]?\224\275J\225\316=\343\217\357=0+\370\274\320E\213=\336\233\t\276\372\226N\275\224\372\232<)U\276;7w\335=>\003(\275\307g\031\276\2013\254;#Z\250\273\207o\313=\337a\334=wmw=[\2033=\377\374\207:B{\245;Yb\221\275c\024}\275o\231\206\276W\364\004\276I>\023>\211\230\255<\263\344\354\275\352\233\002>7\254\361<\332/V>G\356\213\275O#q<n\370 \275\313\204\315\2752\336S\276\357\317\275=\3632\354\275\240+\341\275[^g\275\372\030\344=\200\377\227\275;\247y\275\223\254\026=\301\031\232>:\375\335\274\rM\335\275M\232\340=\'bz\275{\312H\276g\375\301\275\247\253x>_\341V;\020F\022>\'\\\021>cD\010\276>FD\276e\253*\276\253SV\275\237Q\304\275}\320\361\275`\335\316\275O\253\251=\337\273\020>qV@\275\014\204\002=}\274J\276\215\2142<\373T\310=\335\2563\276%\267\366\274\030\\\203=o\027\226<#\001\003=\266\3749\275\377\2762\274g\032T;\032\261W\275(\314W\275\243\333Q<\233\274k\274\217\"m>\271\263&\276\'1\367\274\377\272\023=2\310x;ug0=%\261\030\272\320\263\003;\2751\211=\370\363\177\274\204\214\207=\277>\213=\210E\000\274M\033I\275\372Hp<G\264\317=/VS\274S\307w\275\360I\365=\360\350\354\274\212g2=s\202h<\237\256\243=B\204\245\275\346\010\226=\227\365\224=\037\362\355=\252\252\327<\247\005>\275R\261\207=\203\370\201\2763)\276\275\233\247\302=]\332X=s\245I>\300\200\337\275\370&\200\274\323\2629\276\265\340\020=c\303\016>\313\357\230;\34543\276S\'\234=\250\213\022\276\010\253\004\276\210O=>-e\005\276\334\027\034\276,u/=]\227\'\276\373\243\235\275\023\014\035\276\353\013y\275-\374\343\275S\240`\275Car=\277\325\025>\200\022\032\274J\210s=\254G\310:\322\210\376\275\001kA\275\242\001h=\373\212\206\275\'F\034\276\207yG>V\360*=\221\367\036=\316V\000>\343R\n\275\357>\227\274\023\026\317={4\355<\367\373\026\276\212\010\200\27586a=\371\026\314=\252\342\234=+\233s\274+\242\231=U%m\275 \236z\276\322^B\275\0137\014\274\302{\242<\037Ve\274R\242o\275X\213\2127\004\306\313=\257\372\341\275\272U=>\330*M=z\207D\274\030\177Y>\345;\207;[r\201\275\342j=<?\325\212\275\007\322\362\274\266\351\257=\377r\014\274\262\361\334=G\201\027\274\007!\223=\212\326\262=#\261\2719\330\342\320=\313\330\230\275\347\262\335\274\306o\300\274\350Tt<\317\213/\275\325\017\337\274\254\234\031<\347\340}<\350?\212\275\300%Z\275w\350;:\206D\304\2753Mp=\343\321\242\275\213\205\243=s\3309=\354\327==\323\236+>\037\021N=\363\200\235://\256<\017m\302\275\316\215\r\276E\227\010=pSM;o\277\033\276oMY\2752\305\013>9\323A\273\214\026\021\274\200\374\n>eo&\276\323\276Q\276\365\2600\276N\316@=C%\231=\367na\275\355\356r=Z\250\n>G\377\221\275\037\263k\275\267\354\277\275\257\021\276\274\032\352\342\273\204D\227\275o\353\004=\227:\243\275\367f\n\275\017\355\027\276\351\274\002\275\001\344\275=W\272\221=\310\246\375\274[[`=`\360\013>\343\370\326\275\201\'&\274\213\354\t\274M\334\345\275s\210\315</\020;=H\365\303\275\030u\311=g\023B\275\3436o\274\032\000,>o\362\202=W\037D<H\240\344=I\2300=H\275O=\373\024\242\275#0\265\275Z\233B>\223_\350\275\343\275\352\275%\367\002\276j\353\264\275e\023\013=\000\000\366\274\356\3534=\007\242d=wU\216\275\365f\035>\3322\234>+\336\330<(rN=5B\336\275x\342\225=|\260\302=\332\036g\275G\003\342\274\r\225\002\275\003\355\204\275M\254=\274_\270\232=\033s\220=V\237\212\274\326\377;=\206\225\301<\336\0143\276\343Fz<AI\266=_\335\301\274\350t\255<\336k\275\275\357\235\033\276\2015\244<\2030\007\276g\017\302\275\3747\260\273\377\243\327\274\323<S>e\332\323\274\213\013`;\333\321\201\274\206\204\'>\032N\307=\207w\365\274\360\220+\276\027 \000>\372\344\221>\203\035\317=\323] >\017\341\266=\312\224J\275Q\336F\275"
      }
    }
  }
}
node {
  name: "b3"
  op: "Const"
  attr {
    key: "dtype"
    value {
      type: DT_FLOAT
    }
  }
  attr {
    key: "value"
    value {
      tensor {
        dtype: DT_FLOAT
        tensor_shape {
          dim {
            size: 12
          }
        }
        tensor_content: "\000\000\000\000\000\000\000\000\000\000\000\000\000\000\000\000\000\000\000\000\000\000\000\000\000\000\000\000\000\000\000\000\000\000\000\000\000\000\000\000\000\000\000\000\000\000\000\000"
      }
    }
  }
}
node {
  name: "f3"
  op: "Const"
  attr {
    key: "dtype"
    value {
      type: DT_FLOAT
    }
  }
  attr {
    key: "value"
    value {
      tensor {
        dtype: DT_FLOAT
        tensor_shape {
          dim {
            size: 3
          }
          dim {
            size: 3
          }
          dim {
            size: 12
          }
          dim {
            size: 12
          }
        }
        tensor_content: "9\362\024\275\213}\323=\256t2\275\215D\366=\'\304\205\275\233\375\020\276b\001\007\275\360>q>\n\270\324=\353\261a\2745\354\200=2\246i\275\016\370\210\274+\373\276=\223\252-\276[^t\272I\263\215\275\255\002u<`d\032>\343\261\r=\222\374\020\276\363pF=e\231\232\275\355\233W\276\'c\320=\3754\246\275G\351$\275\371\035\000=O]\227=]\260X<-E\362=\300\350\004=\316\363\222\275\'\0358\275\312\253F\275_K\003\276\234\230\002>\377\350N=u\346\210\273P\356}\276\211\256\261=?&\322=J\256\345<\302\256\376\275\253M\227\275\277\234\036=\013\254\233=1\364\003\275\324\3042\275\360s\037=Y;9<UG\001>\242\215\203<\257\363\331<\312m\360\273\304v\300=MQ\014=P\354\320\275\353A\r>\372_*>]\317\026>6\010C\274\025\325C\276\017|F\276\343]\341=\252\335\276=\337\374\201\274\316E\306=~\t0>\320_x=\302\361j;\273\260\251;\257\267\325=\207\031p=\314\200\205=\263\326\257=\322\322\316\274\023L\253<\270\363%\276\220p\030>\251 ;\275\323\310s=\240\227\022=0oQ\275nQ\021>\214\321\035>\347\316\303\275\035]$=\330\231\006>\024q\215\275\224\211\267:\020q\352:K(m\276m\277W\275\005o\211>#\370P=\270\252d\275\302\207\321\275u\310\236=\237_\353<\325*O=a\n\024>\232\236\362\275L\367\256\275.\265==\037d\030\275Q\346\'>s\221\354;1r\001\276\372\243\360=\360~\360=\000t\236\275\033\353\327\275\314\261\221\275\272\361\346\275\377\354\312<U$\236\275\3706\r\273\362\034u\275\000C\336\275\247\301&>O:\206\275\033\234\267=f\014\t\275)p@>X\250\215=\317\\\036>\264y\233=\037d4\276\203\017\033\276\232I\357\2758\274E\275r^\327\275V\253\214\275\0243\213=\203\245D\276\007\t\207=\332g\322=\221\344\204\275\321\314%>+TK\276+\232\240\275\027\237\231\276\300\224O\274\254\237\270\275\276]\005\276\t\236@>.\025\001>\023\320\276=\270\215+\276^{\207\274\327\2638\276\207\311\004>\257@\345=.(\001=\275\221\027\275S\321\213\274\307\240\277=^\256\231<\210\306\260<\220\363\371\275f\212\025>\177F\003\275*G\225\275\311\241\020>\347\013\373=\237\017==\372\334\205\275\317\327\302=\n\031\321\274\363\316\346=C\3211\275\037\\]=\230p\376\274\350\'P\275\364O\301\275\300L%\276#\'-\275{\341\006\276\177\022\267;\253B\300\275\'y\007>\276\361\t>\301]\014>\221\263\002\276-\002\336<Q\2465\276HM\031>\273\017\252=c8{>W\370|=\235\344\236\275\321\026\036<\251\235?\274\231E\031\276\357\240\210>\333!\231=Su\245\275\033\273\013>5\202\336\275\227\225\260=\357V\215\275\272\300\367\274T\3158\274\245\320\233=e\032\023\275\342+\260\275\365\321\231\274\3459\004>\357r\267=\275,\006;\001\026\205\275C\035\031\275\253\211\370<\363\324\335=\234\253\261\274\223\310\225\275\317;$\276\212\253\014>+{\351<\220\307\207;\335\376h\274\363\n\311\275\323$\"\276\217\240&\276\345=0=\227\317P=\013\207\020>[\3544>\300\326\005=\323\210\334\275\262I-\275\214\267\026\276\330\311%=\235C\312=\313S\254<u\317\225\273\007\2733\2751T5=\301k\272=d\272\035>x\025\037\275\237\370\334\274\337/7>\274\005.\276\327\3279>:Y\010\275\017 #\275\245\320\320\273\037N\261=J\327\323\275\026\030(\274\022\001\322;&\327\204\274\372\261c=dX\273;Qm\240=\236\312\033\276\362\030\316<\267\026\021=\374\037&\276\333\342U\275q(\246=\277\377\250<\232\303\354\275}\033\300\274G5\362=\330I@\274S\363\241>\367\276\002>/\n\007\276\237\036s=W!\024\274\006^\306:\267\317\031\275\331P \275W?\352\2759\020&=pM<\276`@u\274\265\247\026>\325-J\276&\226\267=\236\327\216=\213\220\333\275+\330Y\275\374I\'=\217W5<\277\253\010\276\201\241\035\276\367\314\232\275\212\275\373\274\270\213U\276\002\220\016\276Mv\262\274\"O\233\276\377UK;\321h\017>j\375\020=[5\341\274\017\027\324\274}X\346\275H\331X\275n\334\313=t\225\257\274\021\362\036:L\017\225\273@\264\346\275\205\262\341\275HRr\275mf\030\2761\032\246\274~\035\r>\2352\022>7\216\027>g\">=+\251\332=\357\200_<\356\026\243=\212\273\253=c\031\014\275ol\260\275\374\337\235\275?a4:\365\207\371\274+F\371\275(\013R=x\256\346;\226q\254=\316\375\022>O\017\022\275\367U\220\2751z\207<B\n\202<}!\'\276?\006\244=u\325\206<\362J\271\274\310\361F\275u\260?<T\025\227<\023\201\003\276\325\230\253<&)\247=l\332\r\275\253\271\350<wxZ\274\201E\260\275\241u\006>\247\373W\275\366c\276<\357z;>\340\023_\276\204\274\024\275\337\024j\275\000g\215\276\273Q\013;\205\"\342=3\2400>\017\365L\275\213\363\304;\361+\n>E\362Q\276\333\031\314\2751\021\r\276\337\272\203<\033\024\320\275\350\337}\276\321\022\246\275\"S\361\275\347\330\234\274\250\354\206>\247\206\214\275J\251P\273}So\275\264\351\n<\327\245\263\274u\340c\275\370\237#\275\253\252<==\273\355\274~C\274\274K>\205\275=!V\276\372\371\317=\023\001\207\275\234q\301\275 \314H=G\362\243\2755\'\'\276\355\2318=\230=N\276\014\243\005<%\335\356<\000u\230=[\327*\276\323\272\243;\213\377\026>\030\275O\276\357\207\245\276\233\000n\275\315\007\005>\325\207\033>R9\220:XW#\276MQ\r\274$V\007=\204b%\2750\265h=\366=\304=#\262\261\272\353U(>\017\3542\275\211\036\305\275\322C~=\336\312\301=?\256\006\276:\200\222\274S\t\200=\371Z\221<G\007\\>\313\306\024\2750\253]<f\375\303=\004f.=_\327\206\274\323<\274=\330\332\3169\241\300\001>\353\024\373=\261jI>\270\021\323=#-v\275\0336\004\274\330\244\177\274P\340\n\276\330\373\367=\273%]\274]c\344\274i\004C<\352/\337=]V\260=\232^\341\274\234(\206>\237P\311\275A\216\2738#\232\335=h\206\277\275\265\256\221=\235.\270=\023f{\27535\252<|H\261=\331\210J9\243\027\210;\217\311\325=\325\302j=\222\311\221\274$\363\271\272\"f\247=\300\355]\274\227n\312<5\376\024=\246\363\025\276\212\251\255=K\363\334=\372\\\325=\377\305\224\275m%\263=\030\321\014<\\\336\004\276\262\361\177\274+\225\201\275\370\235\375=\371 2=_\032\241=\201\274\023>\347\202\020\275\366\270\216<\375\237O=\345\305&\275Q\200&\275\027Q\272\275Sg\023>\020\303\236\275o\301\032>3$\t=\241\0073\275\335\315y\274\254Y\004\275\335\347\361\2750\205\211=\315\232\224\275\362\314\337<X\301\355<\363gn\275\330\r1>\030\205\350\274\224\313\007>\317\3020>\036\300\303\274\027\313p\274\317\214\335=\007w\010\276\005\006\341\275\2169%>\005X\375=\017\217n\274R\t\252=\303\353\334\274n\311\206\274\207\314\n=w\031\367\275\350\002$>\351,\254\275\001\242G;e_B=\023\245\333\275\010\350\353=3\265h\275\304\246\236=\261\325\206\276 \214O\275\263\335\376;\200\273\241\275\037o\344;{\241\355<\234\022\232<\223\\\005>\260\322\022\275\210\214\330\273\226\235\266;%/\033\275\253r\267\275i8\265<\320\241u\273\266\254\312<\010\3722\276pPz=\355\n\315=]\261\334=*\350{=R\024S\274\307\204\247\275\302\245\250<\365\355{\273\327\303\377;\000\331\263=\263?\205\275G\241\314<\007\033Y=\237\346L>\243\013\016>\363\340\026>\177\321\251\273\347_d=9\033<\275\343\2102\276Z\302\230<\202g\361=\243\264\224\275\303\177K\275k\"\\\276c\355\265\275#@1\276\264a9\276\217\027\034>\035\354\221\275\323\203\021\276\223)g=\234\233?>\243\374\026>\2239e\276\202\361Z\275\327h(\275x\355\334\275\265\200\035>\275\031f\276g\257\230>\260\366}\275P\307\016>\254h\037\276\022]\335\275\337\272\030\276\227\213\r\276\311`\222;\023\371==\177\301\207\275#\316n<\355\330\236=\370\r(\276\325\315\322\275*;\017>C\260\246=\367\342\005\276;\267\303=\335\336\351\274K9\245=\300\232\316=\314\3121=\202m\351;\353\251$\276g\207)=\231\377\220\275\342\027\214\275\203\361E\275\007\311\365=\n\300l>\252U:>\205\331\024=Sz,\275\252;n=S\313\334;\257J\206\275Mn\320=W\013\025>\235\021\257\275\010\350\005\275\037\014?\276\025\nI\275@\211\017\276\003\031r\275\203%\'\276\347\352\234\275\342\342%<\360\257\332\275\347\231\025=(3B\275\270/\216=\207b\217=\304\344\203\276\025-\200\276\202[j>\370\204>=K\027\343=.\013\210\274\354X\222\274(M\200\274\363\371\332\275\277\301\263\274\016\220\251\275\227\266\025\275\357}\236=J\306H>\302\245\202=\312\256C<@?\017=o8\030\274H\005\371\274*T\252<\005\024m\276/\332 \275\303n\345=G\206\312\275\237-\330=\"\020\276\275\330:\330\275sJ\206=\355\356#>\177\261\221=\216\360+>;\340\253\274\207\325\035\276\373\374\r\276Ok\376=\330\214\242\273sl\006>\022!\334=~q\242\2747\251X\275\256\313\307<c\324\375\275\266\214\024>\027\200\205\275\235\001\273\275\343\017b\275@6,<\373\024\023>\333\253\203=\347xo>\373\211+\274\263\004\037=\343\311\250\275\273\003\252\274H\242\254\275\227\r\003\276\tu\272<\266-\274=\370\017\336;\322\303\307=\321\251H\275B\354)\275\325\240\373\275\300\332\236\272\315\372\253\274\027\315\t<\0074\020\274\225Hc=8\3521=\374\227\306\275\023\2175=\204b\017>\362\227\366\274\300p\317\274\273y\004<\233\224\003>\271\2278\275\013\243\351\274\312Je=~\026\224\274\315;\240=\352\342O=?\350\313\274\342J\240\275\306\206\204\275i\364=>\346\301(\276\217>R\275h\033w=\372\002\003\276Je\232\275r\257>=\037\235\345=EJ\327<OX\307\274\035uN\276*\027r\275\243f\351\274s6\212=|\262\t\274\263 3=\3459z\274\000\014\357=\373\031\333\275\362n\024\276\265\336\344=t_*\276\033\"\203=\212g\321\275F\345\020\275\017\254\372<\013f\212\275\014\020!<r\004\264\275O\333\021\275\023\026\343\274\324\262\026>\033X\362=\370w\231\275!\330\300\275;\203J\276\337\354z>BO\227\275\337\3457=\251\374\312\274Fv\032=\245l\216<77!=\334\337\013\275\037\036:>\033\007\r\274\317\251\336<\304\323\200<#\265P\275\352\027m\275\025\337\022\275\317U\034\274\312h\231=\350@\330<\202\302X\274\036\333\215\275\003\356H\276\003l\277=s[\225;\246\016=>\345\032\214\275\3372\235<P\305\242\275(:\002\276\233\301<\275\232\020e\274\027\214\037\274\205\3749\276\363d\200\274\270:F=\342\207|\273^k\007\276\177p\367;\340\255\212=\030Lx<\343E\373<\227%\341\275\355\014t\274\313B\336\275mW>=\253\242\217;e\323\010\276\363Y\025\276\375\253\273\274\345W\311\275\322V\362\274\365\270\216\275}\314\260\275#\210\006\276m\036\027\276\367\216\342<\327;4>\013\261\215\275\227\213\302=F\361\275={\333\323<x\357\262\275\257\'\003=(\231\'<\223,\001>\320\276\237\275K_\001<?b>\274H\202\326=\314\275\233\275;9\001\276\327\317%\275\376\277\267\275\375\004\004\273\327\335\216=\023\253p\275\'\225\311=_,d\275\342ZT\275\347\210\">\237\206/\275\237\372\207\274\257}\001<\305\317M>3w\277\274\367\3614>W\036\272\275\244\3271=s\302\020>\213Y\245\275\177\356\004=\277\240p=\032\032\255<S\306\2639\227\272\257\275\t\352$\274\313\0137\275\362\224\224\2752\376b\275\233f\207=\257\227\241=6\027\022\274@\207\326\273B(R\273\r;\355\275\237\035\362;w\360\037>~6\243=)\263\001\276]$9=`U\032>&\021\207\2743\021\207\275p\215\317<\225\305\010=\001\000\275=\263\204X\273\367\020\017=\337\300Y=\351\265\245=\234\325$>\263\t\237=\005\271V\273\313:g>K\245\313\274\274\2175\276>\331\300\275\317L\245<s\251z\275\367V\241\275\033\355\234\274*\352\356\275\0202\316\275\313\265\224\274M\350`\275(\204\326\275\313F\214=\017?\001\276Xk\202=Ka\037\274\'WX<\363;\\>k\2211\275s\341^<J\001s=)O?>}\267Q\2742\002\302\274\233\201\031>\343\321&\276?\337\263\275\214l\004\275\353\022\">M7\300<\370!#\275\177\204\263=\247\301A\276\027\360\213\276\267\256\003\276Kg\210>\017N\021\276C\033\240\275\311\217\277=\265R\212\275\"T\325\2759(+\275\243\202\320\273b\324\264\274\265\323b\275\213X\300=;m.>\203\344\322<>i\t\2756J!\276;_\217=\203\024\210\2759\r\r>\215,\237\275\256\264B\275\023\376_\276\265\317\344\275\302\311\242=\'\363\347=\367Q\020>n\246\024>D\366\307\275\371BA>\276E\211<\206\333\275\274\245\220B\275\014\231K\276\235\004\022\275-\267R>#b\242\275\267o\261<\212\261\371=\026b\265=\233,\306=7\262\273\275\350\336\317=C\232\266=\010B\224\275\221\371\031=\025\341\206=\270\250\212\275\2575Q=\334s,>\020\000\333=\215\377n>\020\321\203=[\246\014<K\226Y\276;\226W\274\000\272\'\275\247s\217<(\t\211\275\300R\335<\307f\317=\017a\302=G\036\021=\353\346\323=\202\351\032=[\203\177>\375\032u>\200\363\332=\013\2453>7\374\360\275\242\322\017\276\335\030\003\2730\326\227=\033\r\032>?j\032\274\217s@\274\357\010\316=\330\230}\276j\326\352\275\275\203\017\276}n\306\275\342m*\275\307(\250<\0230\341\273e\254u\275L\0220=\307YE;\307\326\230\275\326\253\221<A\263&=\345q\343\275\367\206\025\276\23436:\263\002\307\275$\036\311<\210 \347\275\253\031\020\276\305\253@>c:\367\275oA(>\360\\y\275\007\025\006\275h8\301\273/S\031=C\201L:@ol=\260\343\362\275k\037\347<\363|U\275`)\252=\246\027\216<\356\204\215=\217\017&=\373\355\004=7\252\247=\352_\022>\377!\260=\275\005\360=\233C\242<9\303#=\025\214\337\275\004l\223=~\326\222=\375\007\232<=\0218=\323\3659>u\031\340=\355ub<\377\327\005>x\313\361<\352C&<\007#\353\275\342\000\335\275\213\020\262\274\257\r\320\275k\227\227=\244\347\000\276j\277\243\274\347Vx\275J\016,>\372\216\225=i\212\020\276\310\257\375\275HU}\275,{\023\276\233\307\204=\327\2537\2750\013k=\372\214\222<\353\274}\275\366:(\276\271\244\200=c\241\013\276#S\033> !\250=C\021\311\275\215\331\230\275]\241-\276\332\317\244\275\365\360M>\253(\'>o\234\244\275\265R\006>_\230s=R\337\322=\306)\244<&\2062\276\177\245\366\275\217\254\243\275\253R\223=%S\231=`\305\001\276\201\203\260\275*\250\215\274s\315t\275\323X\036\275\327\277\242=Sm\021=<\267\002>\333\213\342\275\316M\213\274\323T^<\213\344\363<A\3369>\236\262\211=\010Q\024\276Q\271\277=={\030=\313B\343=\335E\364<\013W\205;_<\342\275xq\340=\205CT\275\232\036\230=N\351\023\276]\262\276\275Wv\010=\010z\373\275)\356G>\256}\252\274\233\0256>G\256+\275\322|\304=\026\257\272\2742O\201\274\257o\262=\347-B=\035\377\003>\r\274\370\275\312g\347\2757\301\321\275+\260\377=\227\002\375=\365n\010>;\301o=\203c\240\275\277\342&>\035\335`>\247\\\322\274z\224\201\275\2555d\274b&\336<J\3625>{j,<\262\0313\275\302\360{\274\355pN\275\035\036\363\275\017\260<\275\300\274\246<\377\211\326<0Ap\274\323\313-=x\2019\274\204l\227=\273\0230\275S\030=\276\233\337d>\363\013\030\275\223\243\331\275B\025\314<\010\007\356=\355\311\246=\363\212\257\275}\220\320=\367\274\342<\207eU=\207\222T\276\340\270\034\275\271,\030\276\023\322w\272I\227=\275\320\261\200\276\340\332\016\276\357\306)\275\206\242\031>\252\366*<\276\237G\275\233-\203\275\370\006V=\257\247\223\274S\260\212=\314\232\215\275U\216\036=\352\341`=\225\321\322\274\021K\035=\021a#>].\357<\240\031\247;r\242.\275\241\360\224\275}PK\274+?\204=}\333\301\274\335zY\276\026l3=\235\202\304\275\311j\"\275\243\362\240\275\310@d>g\0357\275k\307\n>}\375\370=f\3015<bG\252\275\2450l\276B\334;\275\032\264e\276\234\222!\273\202\374\335\273\234w\272\275\031\367\211>\303\231\377\274\273\031\276\274\233_\356;\022(\233\274\030\225i\274,G\271\275\017\256\347\274\214*9\273\030Z\365;\037\305\220\274?T\"\276X/^\275\242\001i\274d6\222=\233:\352\275\207`\002\276{\273\311<S_\246<[!\r\273I\271\204\275f\353\016>\241\236\024>%\017\004\276\025_\020>f\236\'\275\304\262-</&a\276;\256\325\275(#\023\276\340\362\346<\263$\221=\347D\006>\200k\024\275i/\003\276\023\304\270=\036 )=\224\002.=6\031\265\274\307\021\255\273c\014\004;{O*\275IS.=\303\327?=\352\304u=_)\026\274g>l\275\367\232\266\273\302RX>\203\311m=\nUB\276\217\245\010>\235\020Q=u\225\346=\322\035[\276o\'D<#\215\'>{\264\274=c\001\256<\361\303:\276\343\344\204=z\275\307\274>W\230\274o\364\304\273\232\022\210=4\360\223\275#F\225<-\"#=\313\341\005>a\255\003>\230\217M\276\360f\265=\225%d=\244*\241\275\357e\203\2752\347\023\276\354#\222\275\360\326\n>\3436\r>;\371\363<+\217d\276\245\237\226=B\322\215\275\213E\276\2745\334@>^#\002=\0263\246\2753\376\302<\004y<<\003F@<\307\234\023=\313\364\004\276:\312\333=k\316\030>s]\326\275\220\353\210:"
      }
    }
  }
}
node {
  name: "b8"
  op: "Const"
  attr {
    key: "dtype"
    value {
      type: DT_FLOAT
    }
  }
  attr {
    key: "value"
    value {
      tensor {
        dtype: DT_FLOAT
        tensor_shape {
          dim {
            size: 1
          }
        }
        float_val: 0.0
      }
    }
  }
}
node {
  name: "b7"
  op: "Const"
  attr {
    key: "dtype"
    value {
      type: DT_FLOAT
    }
  }
  attr {
    key: "value"
    value {
      tensor {
        dtype: DT_FLOAT
        tensor_shape {
          dim {
            size: 56
          }
        }
        tensor_content: "\000\000\000\000\000\000\000\000\000\000\000\000\000\000\000\000\000\000\000\000\000\000\000\000\000\000\000\000\000\000\000\000\000\000\000\000\000\000\000\000\000\000\000\000\000\000\000\000\000\000\000\000\000\000\000\000\000\000\000\000\000\000\000\000\000\000\000\000\000\000\000\000\000\000\000\000\000\000\000\000\000\000\000\000\000\000\000\000\000\000\000\000\000\000\000\000\000\000\000\000\000\000\000\000\000\000\000\000\000\000\000\000\000\000\000\000\000\000\000\000\000\000\000\000\000\000\000\000\000\000\000\000\000\000\000\000\000\000\000\000\000\000\000\000\000\000\000\000\000\000\000\000\000\000\000\000\000\000\000\000\000\000\000\000\000\000\000\000\000\000\000\000\000\000\000\000\000\000\000\000\000\000\000\000\000\000\000\000\000\000\000\000\000\000\000\000\000\000\000\000\000\000\000\000\000\000\000\000\000\000\000\000\000\000\000\000\000\000\000\000\000\000\000\000"
      }
    }
  }
}
node {
  name: "b2"
  op: "Const"
  attr {
    key: "dtype"
    value {
      type: DT_FLOAT
    }
  }
  attr {
    key: "value"
    value {
      tensor {
        dtype: DT_FLOAT
        tensor_shape {
          dim {
            size: 12
          }
        }
        tensor_content: "\000\000\000\000\000\000\000\000\000\000\000\000\000\000\000\000\000\000\000\000\000\000\000\000\000\000\000\000\000\000\000\000\000\000\000\000\000\000\000\000\000\000\000\000\000\000\000\000"
      }
    }
  }
}
node {
  name: "b1"
  op: "Const"
  attr {
    key: "dtype"
    value {
      type: DT_FLOAT
    }
  }
  attr {
    key: "value"
    value {
      tensor {
        dtype: DT_FLOAT
        tensor_shape {
          dim {
            size: 56
          }
        }
        tensor_content: "\000\000\000\000\000\000\000\000\000\000\000\000\000\000\000\000\000\000\000\000\000\000\000\000\000\000\000\000\000\000\000\000\000\000\000\000\000\000\000\000\000\000\000\000\000\000\000\000\000\000\000\000\000\000\000\000\000\000\000\000\000\000\000\000\000\000\000\000\000\000\000\000\000\000\000\000\000\000\000\000\000\000\000\000\000\000\000\000\000\000\000\000\000\000\000\000\000\000\000\000\000\000\000\000\000\000\000\000\000\000\000\000\000\000\000\000\000\000\000\000\000\000\000\000\000\000\000\000\000\000\000\000\000\000\000\000\000\000\000\000\000\000\000\000\000\000\000\000\000\000\000\000\000\000\000\000\000\000\000\000\000\000\000\000\000\000\000\000\000\000\000\000\000\000\000\000\000\000\000\000\000\000\000\000\000\000\000\000\000\000\000\000\000\000\000\000\000\000\000\000\000\000\000\000\000\000\000\000\000\000\000\000\000\000\000\000\000\000\000\000\000\000\000\000"
      }
    }
  }
}
node {
  name: "f8"
  op: "Const"
  attr {
    key: "dtype"
    value {
      type: DT_FLOAT
    }
  }
  attr {
    key: "value"
    value {
      tensor {
        dtype: DT_FLOAT
        tensor_shape {
          dim {
            size: 1
          }
          dim {
            size: 1
          }
          dim {
            size: 56
          }
          dim {
            size: 16
          }
        }
        tensor_content: "\t{\300:\312\313\373\274G\251\002>\355w\232\274\322\022p\275\377\372\252\275 \244\013\2753`\233\275\023P\007\276O\227\000\276\262R\030\276\301B\272<N.\266\275\033\324\357\275$SA=\002\022\356=#\272m\274\'\242\307\274g\234\r\276\214\255\216\2732\336\236\275\333 \010>\'\370A<\031\025\234\275\267q\027=S\337\203>M\254\206=\305\007\004\276Jro\274\260K\226\274s(\t>\034\3533\276\213\242`\274q9\031\2755/\372=\322\r\267\275\017\353\222\274\320\035\354\275\'\326+\275\301\014\272\2750\373\020=+\371<\276\347\227O\2751)E\276\023\226\264=\203y\353=]6\351;64\200=\272\326\254<R\247{\275K\376\346\275\255\"\324\274+\212<=B\361q\275\317\227\220=\227u\013>\372t\006\275;\370{\275hO\344=\203\217\304\275\202\316\367\275\247\300\006\276#\001\344;\273\365\205\275\333\344&={,\004\275\221\340\000\276X-\206;\031\360B>\023T\205\275Px\325\275\204\213\241\275\203\236\375:\0136\037\274t\2260\275f+\270\275\275\203c\275W\333\366\274\317\236\033=\337\236B>\014\037G=\265\"\336=s\036\024>\312\020\377=\215V\332\275\255\203\253\275`\037\036\275HRx>\303\025l\275fU\261;\250\005\337=N\362\232=\246\322\251=\233\311G;\225\372U=\331\212\264<G\317\270\273\305=\266\275\225\255\310\274\2160\240\275\253+2>\0165\301=\276\264\220\276o\343\252\275x\301[=8\016k\274\257\322\227\275\227\320\350\275\204\201\016\276C6:>F\377\255\275\265X\311\274\261\t\264=`\032\006\275\370@\305=:\272%>?\313\332\273{\265\211=\001|)>5\006\006\275\254?\201=\210\"^=\316)*9K|\357\274\302\374a\276\252!\376=\030\355\346=+\261\301\274\305\240\024\276\367\357\005\275\314\231\000\2747\361\353=\237\033\363\275\331\343\003<RI\005\276\351x\035>h\376\002\276o1\211\275%\033\342<\205\237<\276\270\014\\>\255\003\244=\215\326%=K\006 \275coz\275\353\374o\276+=\027\276(6\361\275CA\325\275]n}<\323\255\350=\31604\2759U\203;P~\377=\366_\265\274\022=\226=\223+\253\274\377^\334\275\266m.=?\242\350\275\237\236m<\306\271\026>\357I\302<\321\222\246\274\340\310\245=`\3455\275\251A\025\276_\361\366\273\002\177\216=\313/\271<\340\371u\275m\r\216\275z\341\234\2757qJ=\311\273\001\276\2019\231=\262\245\354\275\037\"\024\275{\337\233=g\031\010\275-C\033\275\343\367\013>\305.\365\272\006\0354\276\007H\r=\023~\224\274\363\373\370\275\005\210w=s>c\275o\2575>&{\300\275\353\202\210=\345\255T\276\220\226\326=\211\346;=K\354i\275RH\367\273\333vk>U\210\033\275i\372\000>\363F\244=E\2160;%\274~:\257\215\266\275\226$5>cG\323\275\273\212R=\375D\370=\1775\t\275\3563\250<\337V\323<\267\022u>\217\365t=\235 .\274+\027P>\021\303\026\276\323$2\274Go\323=\257m\303\275\200\261\'> \347q\274\203\330\243=\007A\023=)\026\026>\033\252P=Q\177\243=E\337J=\366H\300\273FB\275<&H\214\275!\351\031=\005!\344=\212\271\242\274*\237\364=\213\177\377=\210E\014<\000l\370=G\000\203=\247\367\312=\032\213\263\273\276\027\245\275\335)\211\275\027}\235=\016Z\305\275;@\302\275H\345\271\273\233n\323=+\372\221\274\217\212\340=J\255\264\275\237\035\340<\335\036A\276\244\333\224\275\365\275j\276\034J9\276\005S\325=]\231\361=\222\265O\275o\243\261=\377}\004\275\244J=<v8I>\272\343p\274\263\327K=S\n\262\275\340n\270\275\027\256>\275u\265\251=\007aN\276/U8\274\237-\'\276\'#\307\275;\003Z>\024A\t\276\270\037W\275\227K\030=\n\301\353=\003\370\334=_\316)\275\310L!<\317\302\213=\373\256\347\275\261\377\223\275\2359\024>\335\330\342\274Aj\310\275\200\355\323<\225\211\327=yE\006\275Hw\320<\262\333\260\275+\020\024\276:\034m<\317\3445\275\247\315\372;\200lt\275:R\273\275\242\"\370=/\2369\274\240\222\002>\253\215\324=\350\326`=,\312\027>\232\226\003\274\267v\033={\233A\275\253\366\017;5FZ=\263\334\232\275\305\336\330<\377\357\207=\335\021\356=\343\270\020\276\347<\003>\"\355\017=\326\326\031=@\001\017>\024\232\007\276\345 \347\274\237\273n<5}\036:^\'\246\274O\254\360\275\345\017!=\365\007K\275\237$\270=\211&5=\023A\363\275\'(\273=`6\254=*\360x>\013\366*>\357\246D=\221\020\225=\300\236\000\273o\2212=\0277C\275\367\350\335\275!}1>\342s\231\275\303\211\365;\214O\005>\352(\323\2748]\343=\243\023&<\337*\234\273x\027\244=#!t\273F1\262=qV\234<\232j\215=R7\204\274U>$\276\262\314\246\275b_\241=L\237\257=\242k\260=@ \324\274\360\236Z<\025\260\364\275\030xW\275\2347\n>\3551:>\203\315\347\274]k\265\2741\325\031\275\366Y\314=NH\010<\277\n\223\274 N\337\274{,\251=8\004\322<\372U\351=`5R\275\307Dv=lt\024>\324\200\025=\303^A\275\260\246\275=Z\251\310;\364A\036=\017\036p\276X\353\362\270<l\222\275+t\325\275?\\\302;\345\213\221=c\001\304=\226@\206\275\275fR\276\265eN\275\310l\326\275\274K\004<yl5\275\303\224\007<\212\334\352\271\355\210\'<X\016\357=?\240j=\016\205\266\2748\316a>\335\203\366\275\222\232\250=\343M9\275\273\360\264</o\362\275\337}\326=\013\212%\276}(\r\274\025<\312\275\240M\307\273\273w<>\243\na\275\217;\210<\355\242\023<\0349\263\275\330\307U<c9\203\275\320`V>\327\037\327\275\223#\242\275\313\200\315=\325\212\217<I\213\027=h\232_\275\255\236;\275E\312\000\276\207S)\275\345\331\231\275\013\177\021>\373(\206\275\265O\025=\330\367\031>\200\372\376<+\020\007=\177\326B\276\024\010\245=\344\266\206<?\203A=M\253V=\307\031\t=\267sn\274\317\332\245={\265\366<:\225\334<\302\315\370=r\374f\275\375\311\022\276\324\256\257\275\303\372\220<\'\375\253=\027\022\265=\322D\006>\307\332\217=S\177\321\275\245HR=\377\273\364<rmb</\341?\274\375\347\345\275\007(D\2754\244/\276\307d\213\276\377\014\274\275\225 9\276\213E\223=\237K\367<H9J>\261\3651\275\275\250\213>R\265W\275\223\032\234=[+\036\2742\035\306=wm`=a\224\225=\0130\025\275s2h\275R\233\332\275?\204\265=\017\263\332<Q\353\216\275lm\006>PYS\275\024~G>\375\351&>\322\301\214\275\001V\263\274=\262\355\2757\251,\276\231|\215\275\343\214s\274\257>[=-V\360=?k]=\010\210\013>\347\322\342\275DK\017\276\272\030\232=?\264\337=W4G>W\322\007\2766\236:\273\333\237\267\274Z\2454\276\017m[<\020\313^=\253t\241<\315\205\250\275\016\302\225\275\345\215\201=8s\033>\002\0004<\036\334\020>\343M\364\275\327KD>\307\351\267\275\260\361%=\232\236\332\274\034>2>\352\013\272\2757B\301\274\362\000s\276\332\377\307\275\025\037\337<\000\244\213=\320\362\344<\277\310\261\273X\371\363=0\304\016>\240E\252\274[\333\213<\'\373\305=\205\321\326;jyQ\275i\177\302\275\017/\001\276\373\300\311\275r(\241\275\233\367\346=\377\254/=2\005\t\276\025C\036\275\273F\003\276\235\231\363\275\206y3\276\273\325\306\274C\261\211\275\277\210\270\275\002\2134\276\023\254\275;B\216A=\376H\273=\270\377\237\274\353\253$\275\013F\235\275kiP\275\301\355\020=\377:\326<\r\307\211\275C\312\010\276\213\024\336=\213\251F=\237\365\025\275\220\324#=\001;\241\274\337\364\306<\\\203D\275\217\322\374;\242\210g>\235,\363\275\330=\017>\237*\235<\233B\261\275\010K\001>z\034a\275\200\367r\2755\236\245\275\213\212?\275\373\325\r\275a\362*<+\317\213=\262\210&\275\205\352\262=\003\325g=\274\273\205=\227s\204\274\nH\002>\227R\265\275w\241\345\273TZ\003\276\337\007\001\276d\335\n\276E\354\233=\360\202\240\272\0004e\275M\210\006=\300\036\000\275UO#\276\312\250\262\274\271-\200=\270\234\247\275:\343w=t\034\253\275 \034\331\274\350\010\323\275{\324\343\275s\356T\274\350~\220\276{}\261<\362\241\241<\263\253\260\275\2101\211\275\364\314;\275\313\331\343\275\361\023B\275\007\020\"\2753\223&\276G\211/<\206\216\037=\027\"\350\275\336[ \2755O\322\275\335\325N=\313b!\276\002y\263=\245\333\306;g@\214\273G\213&\276k\274\321<\014\023\023>M \357\275]\361\256=G\347\214=#\245v\2755k\342\274\242\233j\276\325\\`\275\353/\233<\357\255\216\274\0061\r\275\2037P\275kE\r\274\033\244\003\275\027\357\233\275\333\320\334<`u\306\275\374M\266=\355fW\276\225y\013>]u6=\204\r0=\362\325F=\341q\034\276\"m\037\275\377wp\276o\004\035>B~\024>\017\323C\275F\343$>\362\031@\274eT&>\273\247\212\275\343\007/\276\222\326\236=\017\341\331\273\007\010\323=\257\260\206=\262\017\257=?\236\034\275\245\002\241\275I\320I\276\307\347T\275B+\234;y\214\024=\365\252\314\275\007\037t<\275\366j\275s\346\350\274o\013\270\274BT\324=\232\2523\276[\314L==\007\343\275\306\361\211\276v\320\201\274\262t\016\2768o;\275a\324\273=\030\331\365\275\n|+\275\372\237h<\365\000\352;\202\"2>\217\177\232\274;\227\333\274;_\032>\265\222\320\274\237\325\270\274\351\0244\276gR\n=\332\333\262\275?S(>\212\343\352=\032,X>m~\273<\263\225\312\275\037{\024\276\315\356\330<\323\030\336\275\265uy<\210\357\337\275h\005\033\275S<a=\215\325\024\275\230\016\335=\202\345\361=2\005\\\275\334H\216=\261J\303\274\013\365\032\275\037\312u=/\315\201\275\007C\243\274\017\275\003\275\200\326\257;\217\253&=s\376\037>rv\216\275;f^>L\036\314=\207\266\311=\260\244\323=\345\273P;ol\300\2755C\334\275\307KA\274\016sL>\347\t*\276w\330{<\023\367\033\275\007R\347<\226\341\201\275[\n8>\243\272\350\275\273\202,>%\302\356\273\301\337\004>i\332\226\275\303z\326\275\360\374\372\275b\3244<\343o+\2745\301\341\2758/\304\274\033\377\t=K\010\010\2740\331|\275\217\353)\276\362\240\204\275\307\252\014\276L]\024\276\262/\202<\251p\301\272\r(W=\\\262\";e\277\223=6\"\237\275O\315\n>W\264\327<Vs\'\276|\374\r\274\253+o\276\277\271\310\275l\243I<g\252>\276\256\223\303=\005\367\204=C\273\301\275o\343\n>g\372\253\274XE\276=&(\032>\000[~=\017\031\232=\270X\226=\207\360\300=\252\006\371\275\023&\324\274\225\224D\275\277_\232=\317\326\357\275%\277\341\275\267\377\035\275dT\273=\017\352\302\2753\006\314\275_R\314<\357,\254\275M\366_\271\257t\200\276X\300\004=#U5>!;\230\275\017\362\317\274-7\231=c\025\261<\033\353\210>\3626r\275\307\023!>\303e\000>\036,7>m3\221\275\322^\306\274x\374`>&\022\236;Q\366\251\275\036\377\277\275\227\r\265=\277\214\256<\353\336V\275\230W\274=\2028\007\276\320<?>\335\236\352=\310P\023\275\243\301\261:\220$\331=\370l\315=\320\360\024\275\363\307c=\020\255\236\275I8\231<\311\237\212\274T\2311=\027\024\177\275\206\3610<Jaj>Z\301\321\274\255?\207\275\007M\200=&{\227=\013.\t>\314\212\007>\227\2628\276\336B\272\275\343\231\002\276\347\360\310\272\362\356=\276X\356}\275\211\202\206=\207\200\254\275\033u}<\211C+>\353\243o\276\350\007\362=3\305\014\276\203#V>\026\2170=\n\340\315<9S/\276\002Kf>\032\250\237=m*\203<|<\002\275H\223\252>\320\317\266\275\364\000\005\276/V\036>\376i2\275\270\021\205\275u\303\335\275:\245\273\270\363|<\275\213_L=w:\211\274\037< <Q\243\021\276PW\311\273\021u\220<\341\372B>oL\304<.\255\303</P\257\275O\313)\275\260m\254\275/U\330\275\213\305>\275\006\3437>\267\367\373<s\030\377\275\2234l=\022\203\233\275\302\316b\275\027\335\030>\210@f\276"
      }
    }
  }
}
node {
  name: "f7"
  op: "Const"
  attr {
    key: "dtype"
    value {
      type: DT_FLOAT
    }
  }
  attr {
    key: "value"
    value {
      tensor {
        dtype: DT_FLOAT
        tensor_shape {
          dim {
            size: 1
          }
          dim {
            size: 1
          }
          dim {
            size: 12
          }
          dim {
            size: 56
          }
        }
        tensor_content: ";\3235=\005@W>y\341%\274\232\306\310\274Z\233\311\275\340<\342\275\343N=>\375\220\367\275\005}\230\273c\024\203=\312\242\210=\037\377\013\275\023\352^=P\0252\276\271}\005>\024\222G\275v\030\005\276\023\177S===\251\275\373T|=O_#\275\2767\230=\007\273\006\276M\323S\273\220\347\316\275\312G\032\275\33378\274cT2<\020\356\354\274\030\341M\275\263\017\021=\225\213G\273\030S\377\274\030\312X\276\272\356\r=\2208\357\274j\312Z\274\264\267+=*\226+\276\013\201\362\275\0136\245\275O%\326\275@\027\351\275P&\246\275W\232\257\275\317@\242\275y\317\034\275>\367\213=\027\265Q\275$\261\224\275\367\224\265=\244-\005=\0210\200\275/\220C\275\014\336\023\276\210\330\005>\020\266\353\275\017\034\211\275\255\224\022\274S{\034=\363\255\244\274\377\241q\275B\245\t\276\357\233G\275\236><\275\305! \276<m\225<A\031\201\2754\023\221\275\306\202\030>x\306\316<\350\362o\274k1\324\274\322\350\002>\323!1\276s\321\305=D\024I=q=\210\275\213\251\014\276G\324\t>\014!\n\276\325\264\336\275\373\311z\276\271\356\267=\251\342)\274E\256\256\275(\n\352\275\2730f\276S\276\010\276]\362\353=\333\216\350=W\207?>P\366\\=`\'\355=`@z=\215k\310<\255M{<\240\030\022\276\004\2137>\025\260\225\275\257^\027>_\356\321=\023\014\241=Og\023\2768\265\022\275\225c\346\274\332\265\342\274\303\267\017\276`:p\276L\024\240\274P\230\034=\357v\267\275\375e\275;;&\313=\203$\375\275E\311\265\274\235\202\352=@\367\340\275\363%\226\276_`<\276\352\204\216>\001j\270=z\205O\2734\032\225<g\315\034>\373\236$\276qk\260=zzJ\275ve\277=\023r\323<\013\345\031;\342\336\342=\335:\326\275\200,v\274\256\212K\276\"\304\007>\'x\206\275\255\004\337\275?B+<w\003\035\276\371\025\220\275bE\275\272[\267\r\276\023\271\022\275\370\363\022>\243\316\371<h\251\333<\202R\363;\346A\013=\250\235e>7V\276;\210\030\366\273l\261\242\273\216w#\275\313|8\276\013\270\376\275Kxa92\370\343=\270\315\327\275\257M\342\275\212zq=,\217\021>\020~\245\274\324\263\311\275\347\226#>#\245\316; \335\377<\034\031\022\276+,\360\274E\036P=g\332q\276@-R=\226K\210\275\303\013\271<\315\302\234\275\003c\"\275GD<\276X\373\343\275\027\013\024>aK:\275\003q\023\276\332u\256=\352\351\241==.\000\276\350AG\274t\267\232\275\257\303\300=U\003{\276P\016-=\211U\020\276n\360;=\027\"Y\275\303\221\"=g\016\001\275kV\244=\267\326\363\275\350Y\356=\302\tS\275\346\213\253\274\003]\311=\337\253}<\267\207\330=\257\274\300\275\317\374\261<\370{\\<\027\023\r>\263n\310\275>\356\267\274*\243\013\276\302\244Q\276\207\370\250\274\236\276>\2768\332\241=\005\356\214=\213\353:\275@\322\007\276\343\3239\275\372\201\350=\263\036\343=\367&t\274}\213;\275e\025`=#\"1\275>W/=B.\006>\307\304\020\275196\274\003\320\275\275\277\010)=6\032\270<\253SF\275\374\342\241=<F*\276H\373\336\274%UF=\'-\342\275\347\266;\275z\373\214;\375y\260\275\214\016H=\275 \252\275\355\032\273<\335=\004\276{F]>\004\315$\276\357\273\351=I\267\267\275G,Y=?\221\205\273\303\310\310=\364N\010\276\0133\231\275\323\246\267\275\005\016K=f.\244\275=n\212=\303X\200;!O\272<r\036\322=-\233V\273\027\325\273\275\257`\n\275\377\215P\275\017\n.\276\023\275\264=\336\206\270=\265\311\231<\255+\260<c\274\203=\305Yk\275Z\357\346\273\3325\345<\275\000\237\274\340\271\322\275;H >\253\030-\276\255\334\364\275\243 \002\275`\276\270=;\302B=\016\327H=C \311=g\217\245\274\313|%\276\376W=\276\354H\242\275pQ#=R\352\013>\2103T<\202\252\242=\277^\010\275\'w\036\273f\273\272=c\000\207\275B^v=n\271*=\263\206d>\277\337`>\274}\275\275\330v]\275x\253{\275E8\320=\322d\340=\"]l<P\226\346=#\253\322\275\347H\215<c\231\375=\274\030\242:\271\016\271<\010\331\367\274:\2331=\373\2156=z5\300\274\204\\\220\275\217\201\326\275o\334\n\275H\367\262\275\020\232\254=OP\273\274k\215/<\370\003i=p`W=N\'\257<\227\311\313\275\2409X=\312\246\360=\335F\312<\227&F\276\262\037\311=\036\215\013\275\300\253\347\274\223\337\007\276e\223b<g\3220\276[\201\275=\231\010\274=\020\014l;\212\334\341\2744\244\221\275\r\r\356\275e<\346=S>g\274^s\023\276\236<\016\273w\365\311=\300]o\275;x\371=\210>E=^`\246<j\315(=\212\022:=\255d\345\273\'\251I\276C\260q<e;\354=\3672s=\005w\365\275S\201\017<yh2=\037\000\230=\323\2271=T\270\277\275OE\244<\033H?;Ss\247=Na\203<\327\203(\274O\032\025\276\'\362\314\275\240\203\022>\243}\350\274{I\004\276\274L\033;\022l <\021\370%\275\005\302L<A\372\215=J\034\331\275k\306#>^w\221=\274\345\305\274\335\3314=^\202\036\275_-\000>\242\016\236\275\213\344\367=\224\n\207>\037\311\321\275c\007\026\276\245k\016\275C\270\036\274\235YO=\300\007i\274n\307\000;VD\214=n\263B=\017}Q>\360\221\024\273\032\007\217=\217N~=\177\343\200\275r\304\216<:\237\355=7O\262\274\344\217\211\275\233\030\315<\212\275\376<\r.\243=\236z\274\275\033\252j\276\240\302\374\2746\366\230\274\352\376\016\275\017^2\274\247U,>\220\346\217\273\250k\n>\213\207\223=J\274+=\210\256\036>\371h\223;_\215\253<\362\232\325\275OX\213\275\003$e\275\332\301\306\275C\265^>\253\351\275<S\237(>\262\270\243=>\316\t\276\354\014\254=\354\206;\273\177\360W=\303\243\255=5)\232\275\034\222\013\276\306\273#\276e\n|\2758\201f\274g\025\277=oa\337\275%\223\337\275.\034;=\207\035\275\275_\352O\276\033\270\007>\351-\205=\217\235H\275\005\224\342\275u\034j={Xn\274c\005\035\275\373M9>g\345\002=3V\301\273\244\261E>\343c\025>\252\316\366\274\267\277\337=\353P]\276b\205*>e\013l>/~#<\332K\232\276mCp\273\246\241\243;P\336N=\360\347l=\324s\207\275\241\372\230\275\271/\235\275\375Q-= \352,>\310f\270\275\352X\327<\257\004\013\275\005\356\030>\202\350\320\275\265Q\210\275\313bE<\013\005&\276\273\372\200<#\264\211<=s\230\274\223\025,>\311\247\263=R\246\373\275KG\220=\000s\034>oU\244\275\263\241\005=:\260\230=\227\036$\275\334\316\210\275\325*\201\273\177\366\003=\033j\344<\370\246a\276\337eO>\374\211*\275\243\333O\275\2075\372<\307\250\245=\362[\032=\315Vt=t\002\231>\316\267\260\274w\352\231=\300\215\272\273\215\272\357\275P\273.\276\254\205\210=P\264s=S\337\236\275H\327\343<\315\222L\276\225\"\354\273\255N\t\275\231\323\n<\357\206~\274\353\033%>\323k\322\275\343\341M=`\033e\276\'\372G=\033id>\273V\257\274\325\024]=ik\210\275\210N\000\276bf\377=\022\231u\275\224\271\312=\302[\377;K8\361\275\370\260<\276\355\215\353\274\000\216n=\303\305\213<;\355\244=\302\3337=\245\r\230\275\233\217,>_\365/<\223\307\261<\222w\352\275\2547\030>\016mL=\362L\325=8.\034\2755\260\334=\247\326\317\275\231\005\217\275\'i\357;\305\031\n=\005\371o\273\247\364\245\275\313R\325;\260\031Z>\227\244\234\275\200\274\016\274\375\275o=\345\350\366\274\373\370\376\275\263\365\346=\203n\t>\270\364\321=\242\\\033>\n\000\302\275\217\216\307\273IA\005\274g\2077\275\247$\217<p\220{=\0024[\275s\321K\275_\327%\275U\004\002>\037\022\020\276!\370E\275\363\1775;*\345.=G`\201\275\353\347\246\275\232$x=(\323X=\375/\277<\271\016\210=^\"\207=.G\207=\317$\277\275\242<\240<#|~=D}\211\275\311\347\">\030g\364<C\342\"=\365H\032>/z\'\276\330\027\330=\322\023\030>\3432%\276\020\357\372<\236\016\265<\352h\306\274\237>\306=\340\340\030\275X\242\274\275K\037\265<EP\213\275e\016Q=\322\222I=\177\027\276=uY\035=1\177\207\275\202Z9>Vt*>\216\027)>\004\247\267\274\365ZY=\022\345\027\276\r\2616<\250\022-\275\232u\256\274,A&\276\240\215\326\275\t8\203=\036\031\205\275v\265\233<\343\372\363=\200\375}=NN\256\274\255\327~\275A\030F>\257\023\t=Ne\037\275L\347\t>y\211.>\325Y\355<\377a\217\276\234\314\013\274\316S\314<C\212\213\274\262\334>\276\253+u=\003\366\305\2755b\312=\035\220\367\275#o?\275K\257\264<\340\266Z>Y\271\021\276\005o\n\276\327\'\352=E\336\322\275\n\345\222\274\017\350\260=\227\202\353=[2\212\275\332\224#\274s<$>\273(C=\272\232\300=>k\236\2755n\206\275\376\240%\276\227\241)\273\241\200\267\275\257\372\232\275\366\307\004\276"
      }
    }
  }
}
node {
  name: "f2"
  op: "Const"
  attr {
    key: "dtype"
    value {
      type: DT_FLOAT
    }
  }
  attr {
    key: "value"
    value {
      tensor {
        dtype: DT_FLOAT
        tensor_shape {
          dim {
            size: 1
          }
          dim {
            size: 1
          }
          dim {
            size: 56
          }
          dim {
            size: 12
          }
        }
        tensor_content: "[\007c\276\255\320U<\320\214\351\274\247\022\305=:\323c\272\361L\235=\377\307\321={\213\002\276I\220\004<\375\217\023\276\017\2650\275;0\222\274w\253\353=2\215\330\275+B\375\274D+\240\275\352\254H>\215\322\332\274Wx\037\275\3635\315\275\260\267\260\275\241\250\242\275\330\t\224=\366\232\n>\332H\261\274\230\226\257<)V\274=\3437\210<\026\222\251\275E\220A\275-z\346=Q\202\314<O\237\264\275\257\360\324=/-\237\275 \314\333<)\3311\275\033`\037<M\221\331\275\220\020\355:@8A>7=5=\203\261\'>B{\353=^\261\206=\023\371\230=P\037\365\272\207\216\033\276\004\210\267\275:!y\275\017\352\003>D`\237=\247$m\275\327\005\034>\302\002\370=/\264\345\275\263\257\221\275:\305\016\276\232\213\006\276g\006>>r\226i<\273z\"\276K`\345\275\312\024\027=\232M\301=l\000\215\2755)~\275\324\202\010\275wR\371=-\255\306\275\033\013x\2742\203\234=\026\252\205\275\327PU=#6;=\363\257<>5\330|=H\t\303=\222\\\\=\263\200*\275@\266\036\275\261^\230<\010\341\r\276\372\217\204\275\000jS\275\303A\347\275i\256\275;G\2571\276\335\373\367=Z\267\007\274],\007:)\257\230=\274\222\252\275\271\351J\275^\222\256\274.\345\252=C\341$\276\237T\n\276\323O\253=Uc\337<g\242\240=\254\256\253\275\3024\177=\356\030\027\276\357h\367\275\240\177\217<\260Z\367=\331\355\024\274\337\353\200=\220\210!\2756\343\2429\367F\275\275\357`\241\275\355\362\370=\377\235\r=\230K\367\275r\365z<\022`\271=\241\212\016=\304Y6\274aA\273\275\207b\036\275\275PW\274\003\276\332<g\315\004>\366\374\311\275?oL=C\302\361\274G\365\230=\217\327\314<\337\260\273=\205Y\364=\357\224\245\275@\t\303\275\327\336\206>6\350\"\276?i\005\276(\013\252\275w\376r=\323F\203=k\242\207\275\352Bb=\234y\004\276\246\031\225\275F\241\023>\242\257\t>!\201\005\276\252D\317\274\267Z\004<\002.\253=5\211;\276\200g >\211b=\275\305\343\224\275@\254\030>5\220R>\357\304_\275o\344 =g\265\213=i\231\214\275B\003\001=:\004\316\275\235u|\276 \334\324\275D\232\002\275\327\274\212=\302P\234=7\350\245==\233\240=\330\254\223\274\307\302\345=\353l+>\214;\254\2759\212\007>\360\244\033\276#r\374\275\005Ua=\272\245\224=w.\307\274}vp=\335\023\355;5\364\333<\210\325\222\275\324\247\233\275\020\003a\273J\342Q\275\252\003\342=/\303\335=\210\313#\276\000\201\360=\235i\331<\265\035\350\275\305!^\275S\354\247;\240\230f\274\363r\222<\326\036I\275>\206\264\275cp\035\276k\236d=\235\210\275\275]BE\276\231\017\005\275>\353\n\275\300D\007\276\177\253\334\275\003\310K\275\215}V\274\354\037I\2750,\322=\203\306\231\275\002\264\320=n\r9\276\357\032\310\274\267\225\235=E@t<Y\257\252=@\217\273\275\365\323y\274N\000\302=\277\210#<7]\207=\217\315\375\275{\231\020>*\365\317<\303/c=:\347R\276@>\330\274\177\324O\276\272\247Z>\223\255\302=\372X\177\275\276]\302\275/j\247=\367[\036<m\267\261\275\357\267(\275X{\364\275\346S\246=!z,\276\0334\261\272\252\375a\275X\305\350\2751A\273\275\034\021\024>\367@^=\340\013\336\275\306\341-\275\004,G\275t\032\275=\207\277\t\276\302\216\265=\246L\206<p)\347\275\014P#>\374\234\255=Q}\t=.\241\201\271;\t\\>S\003\373\273=\320\004\275\350*\345=y\222\'=B6x\274\016k\213>\027/n<\307\r\310<$\310\200\275Euw>\371~\035\275v\306\026\276G\323\345=\010\343\353=\250\312\271\2750\'\362\275\230=u\275\365\276A\275u\310\367<_\262\005>\303\315\333<\312H\201=u\t\367=\363\251\275=B\365\245\273\205\226\016\276\000\217\377\275;\242\363\275\376\367\016>\311\344\007\276\355\222d<\253\305\361\275?t`=\345\256\247\275#\270X\275\030}\002\275\325\024\343\275\307\233\247=\307\rS\273[tN\275;\337\246\274\201N\214=\257v\331\274\346\334\206\276B\237\330<?Y\032>\215\262Z\275\037\206K\276\311\376\033=\363\342(>(\273\351\274\275\314>=`\363\323=\237->\276\261$B\275\177\036\215\275\307c\367\275\"\206\254<\032)\360<\233/\215\275\330O4\275uX3;\373.g\275\370\352v;]\262x\275%\274\r\275\245,D=\024+\266\275\227?o\275I\241\017\274\305\263(\276{\306(>G\306s=\375#\033>\000\345U\275[\325\275=\022s\225\275}\273\320\275\033\367\271\275\357\272>;\r\236\353=O\346\214\274V\370#\275\2520Y<|T\261\274\252\202\212=\343\353\210<Z\267\342=U\360.\276\270\375\202>\247\023\200\275\3409W<!U\257<\013fu\275u\217\313\275v\202-\276\240\227\014\275\227\010\203\275\242\340{\274>\326\001\276R~ \274\322\317\331:\212\343\020=c\217+\276H#\324=\223\024\037\274\310\002\306\275\327\'\010\2746\031\234<>\253\001\276\200A\367=\362\007\347=P\256&\275\240\310\013>\373FL>\3702o=\ty\252=\377\013\235=\347\204\n\275#\361\022\275P]x\275\215\374?\275\2632k\275\262\257\372\27589\247\274\205>\004>t\302\205=\213\"\207=\200Z\336=\331\\\252=\312\310&>\323P\337=\317\203\201=\005\nQ=\367\357\270=\341\033\240=\325^\302\274\340\300\346=\220\200\027\275_-\274=G\266\306\274\267\342\220\276k\242\276=\3733\217=\315p\210<\035\306O\273\351\3415>\370\013\016\276\331^\245<\350\300w=\330\260\306\275s\360\003>\014\004\226\275\207\242>\276\250\255\035>\230=\3239b\225\207\274\321v\031\276P\345\240:r\225\224\275-}\375\274\032\256b<\245\275\025=\034H\212\275M\363\306\271!\205\257=\337De=\207\307.=4\237\007\276c\001\372=0\264\224\275\267\255\324=\347\345\355\275o5\245\275\273\257\244\273\224T\313=X\323[\275\232\377\351\275\020\'c\276\354\3270=\340\343\017\276\3456\024>\324I\246;#|P\275\243\330}<\027\000\202\275ZU\370\273u\260F>\270\371*\274\006\035\252\275\302^\036\274Wx\365\275hX\025>x\031\036\275E\364`8:\005-\276\313w\354\274\032B\304\275\255\246\270\274Uw\203=}\223\232=`\332\010>\300oR\275\017\272h\275\373\034\211=\267\023\302\274\232\261{=\355\n\366=U\300\037\276\243@_\276\333\251\356\275X\355{<I\303\236=\334\177\266<\340_\366\275\254])=\370\250\2319\303!\356\275\360\372!\275\223f\212=\263\344Q\275~\270\236\275_\267\202<8\326\234<r\323\312<\306U\236<\230\335\312=J\252\337<\273\316\241\2753-K\272\007\246\271<\333\316_>w{\n=\037h\324\274[\340\371=\321\332\245\275X\245\006>\003\310\037=G\312\276=y\016\000\276\365\354<\275k\3202\275\374+\263\275c\313\231\275\376\302\000=\245\177\246\275F:\200\275\242\030\010\276nQ\256<K\355\272=d\223\265=\270;\272:\030\037\350\274D\265\211\275\017\277==\265_\227\275b\017\271=\203-;\275\026\367\010>\352s\357:\222\363\211\274Y\340\022>\004RB=\206\307\006\276o\256\366=\003C\262=~\206\027\275\227B\333=\257\264\342\275;\023\323\275/\333\374=\237\205p>\032\235\244\275\357\025\246=8t\214=\024\331\023\276|\001\223\274X\007\327=\263L$=WO\227<(j\357\274\037\010\335\274\261d\211\275\310\323\354=0h$\276@*5\276\013\325\002>\220\000y=:\254h=\337\364\204=\257\334c\276\263\311g=\037Z\274=\324\360\"=\340\240\213=B\260G\275!g\214\276S\353K\276m\346\233\273\210t\207>\000U)\275\205\202\017\272\3361\001>\326\235<\275\265\265p=\3537\271\275Q\371G\275q\210\242\2741\232-\275\210o\326\274\344\2448\275s\254\216=\272P\205\275\033\233p=X{m=D(I<3\314J\275#\321:>\223\2167>+li<\227\365/=7\2705\276\276\235\033=V\244\214<\246[==\374\\\301\275\370P\261=8\335\215=\377A\177\275\177\267B\276\312\341\332=\205/\001=0\232p=\027\031\345\275j\010(>n\n.>X5\201\275\016\343\265<\233\367\221=\036\177\022>\002#\217<\225$\001=\207\373\335\273\307\007\341<\027X\227=R\021\344=h\017 \272\273\360\323\275{8\177<\177\032_>\027\357\025\275\253r;\274\332\026\355<\007\027\354\275[\376\336<\005\313\025=\2069 \275\202\014\203;\223\3363\276i\216\274=V\275!=\033\376\327=w\3272>cS$>R\370\001\275W\224\252=Z\2615\275p\306\305=;\316m=\320@W<\345\361Q>\212\3675>\'K\310\275X\242\366;@\344Q\276\277eQ=\3333\345=oU\204=\217v\363\275\027\nf\274@\361\337<\235:;>G\035!=\'e\214\275\273,\304<\206\361\264<\345\366.\275\257lA=\325\003z=E\223g\275c\261\220=$\315\034=R}\223;[\246\000\276\212H\206\276\367\200\261=\322R\030=\275\010\324=#\215\031\275M\010\024>\312$X\275\362\320\315=e\313\374\2752i\277=\243\226\321\275\3426u\275\377{\263\275\003\032\311\275\007\327\364=\233\231O<\332\212^\274\233\027D>\347s\003\275"
      }
    }
  }
}
node {
  name: "f1"
  op: "Const"
  attr {
    key: "dtype"
    value {
      type: DT_FLOAT
    }
  }
  attr {
    key: "value"
    value {
      tensor {
        dtype: DT_FLOAT
        tensor_shape {
          dim {
            size: 5
          }
          dim {
            size: 5
          }
          dim {
            size: 1
          }
          dim {
            size: 56
          }
        }
